<pad>	0
<unk>	0
<s>	0
</s>	0
▁t	-0
he	-1
▁a	-2
in	-3
▁s	-4
▁w	-5
re	-6
▁the	-7
ou	-8
ha	-9
on	-10
er	-11
▁b	-12
ed	-13
ing	-14
it	-15
▁m	-16
▁c	-17
▁f	-18
en	-19
▁to	-20
▁o	-21
is	-22
as	-23
nd	-24
▁I	-25
or	-26
▁d	-27
ll	-28
▁l	-29
▁p	-30
▁“	-31
▁he	-32
an	-33
▁of	-34
es	-35
ar	-36
hat	-37
at	-38
▁in	-39
▁g	-40
om	-41
▁ha	-42
▁was	-43
▁h	-44
..	-45
▁n	-46
▁and	-47
▁be	-48
le	-49
ld	-50
ly	-51
▁e	-52
ow	-53
▁T	-54
▁y	-55
gh	-56
▁th	-57
id	-58
st	-59
▁that	-60
▁it	-61
▁you	-62
ve	-63
ot	-64
ut	-65
ac	-66
▁on	-67
▁re	-68
im	-69
ic	-70
et	-71
▁u	-72
al	-73
.”	-74
▁st	-75
se	-76
ay	-77
▁A	-78
ir	-79
▁S	-80
ould	-81
ke	-82
▁we	-83
ent	-84
▁her	-85
out	-86
ion	-87
ght	-88
▁r	-89
ad	-90
▁as	-91
ith	-92
ver	-93
oo	-94
▁The	-95
▁had	-96
▁for	-97
▁H	-98
▁with	-99
ur	-100
▁an	-101
ter	-102
▁li	-103
▁me	-104
am	-105
ce	-106
▁she	-107
▁at	-108
all	-109
ight	-110
▁his	-111
...	-112
her	-113
▁fr	-114
ec	-115
▁wh	-116
▁W	-117
▁M	-118
pp	-119
▁but	-120
if	-121
ee	-122
red	-123
il	-124
ag	-125
▁is	-126
▁so	-127
▁k	-128
ust	-129
ch	-130
▁my	-131
ill	-132
?”	-133
ain	-134
ro	-135
▁this	-136
ore	-137
▁like	-138
▁C	-139
▁out	-140
um	-141
ome	-142
▁B	-143
▁were	-144
▁ab	-145
ven	-146
▁j	-147
▁not	-148
▁would	-149
ess	-150
ant	-151
rou	-152
ack	-153
▁sh	-154
▁from	-155
▁all	-156
▁su	-157
hing	-158
▁L	-159
▁do	-160
▁up	-161
▁could	-162
▁have	-163
!”	-164
ally	-165
un	-166
ked	-167
ri	-168
▁they	-169
▁sa	-170
one	-171
▁ex	-172
▁con	-173
▁ne	-174
han	-175
ak	-176
us	-177
▁sp	-178
▁him	-179
▁It	-180
▁K	-181
est	-182
ation	-183
▁wor	-184
▁no	-185
▁R	-186
ol	-187
ers	-188
ul	-189
qu	-190
ab	-191
and	-192
art	-193
▁al	-194
el	-195
os	-196
ind	-197
▁le	-198
▁E	-199
our	-200
▁kn	-201
▁did	-202
ge	-203
ard	-204
ell	-205
▁them	-206
▁v	-207
▁tr	-208
▁D	-209
▁int	-210
▁go	-211
▁just	-212
▁one	-213
▁en	-214
em	-215
▁Y	-216
▁N	-217
op	-218
▁see	-219
▁loo	-220
▁He	-221
ide	-222
ct	-223
ren	-224
▁about	-225
hen	-226
▁been	-227
▁F	-228
ame	-229
ig	-230
▁what	-231
ong	-232
▁any	-233
ast	-234
ate	-235
▁if	-236
ime	-237
▁O	-238
ous	-239
ood	-240
,”	-241
▁said	-242
▁or	-243
ace	-244
▁their	-245
▁com	-246
▁who	-247
res	-248
▁there	-249
hed	-250
▁G	-251
ect	-252
king	-253
ap	-254
ort	-255
▁by	-256
ake	-257
ist	-258
▁some	-259
own	-260
very	-261
hi	-262
▁pl	-263
▁un	-264
▁cl	-265
▁She	-266
▁us	-267
▁can	-268
lf	-269
▁too	-270
▁P	-271
▁man	-272
ther	-273
▁back	-274
▁de	-275
ough	-276
ie	-277
ive	-278
▁time	-279
▁into	-280
▁are	-281
▁pro	-282
▁your	-283
▁even	-284
ice	-285
au	-286
▁right	-287
▁bl	-288
round	-289
way	-290
hap	-291
ose	-292
ry	-293
ure	-294
▁ag	-295
▁over	-296
▁more	-297
▁get	-298
end	-299
▁then	-300
fter	-301
ear	-302
▁didn	-303
▁qu	-304
od	-305
▁But	-306
ity	-307
▁other	-308
...”	-309
act	-310
▁now	-311
▁hand	-312
urn	-313
▁way	-314
self	-315
▁exp	-316
▁off	-317
▁sm	-318
ine	-319
ade	-320
▁only	-321
ite	-322
ra	-323
omet	-324
ble	-325
ost	-326
ass	-327
oc	-328
iz	-329
▁know	-330
▁ar	-331
▁than	-332
▁im	-333
pt	-334
ord	-335
▁thin	-336
fe	-337
▁when	-338
▁how	-339
ire	-340
ile	-341
itt	-342
▁fl	-343
th	-344
▁want	-345
▁down	-346
ep	-347
med	-348
ber	-349
ound	-350
age	-351
ue	-352
▁ey	-353
omething	-354
ud	-355
ies	-356
fore	-357
ved	-358
here	-359
ered	-360
▁Th	-361
▁pr	-362
ving	-363
hapter	-364
▁ro	-365
reat	-366
ress	-367
▁tw	-368
▁thing	-369
▁head	-370
ious	-371
▁In	-372
▁gr	-373
ia	-374
ond	-375
ff	-376
▁something	-377
ought	-378
▁That	-379
uch	-380
wn	-381
are	-382
▁sc	-383
▁gu	-384
▁say	-385
▁don	-386
dd	-387
ks	-388
▁J	-389
▁before	-390
oun	-391
▁here	-392
▁sw	-393
ew	-394
▁And	-395
ull	-396
▁again	-397
ove	-398
▁still	-399
able	-400
▁sl	-401
ever	-402
ea	-403
ady	-404
nder	-405
ft	-406
▁bec	-407
▁As	-408
▁around	-409
oin	-410
▁br	-411
▁looked	-412
▁after	-413
ated	-414
▁cont	-415
▁much	-416
led	-417
▁eyes	-418
▁made	-419
ance	-420
▁pre	-421
▁pe	-422
▁If	-423
▁dis	-424
other	-425
▁thought	-426
▁res	-427
▁should	-428
▁gi	-429
▁every	-430
▁comp	-431
▁att	-432
ting	-433
▁think	-434
ase	-435
▁wasn	-436
ave	-437
ment	-438
ling	-439
thing	-440
rough	-441
irst	-442
▁app	-443
▁our	-444
▁str	-445
▁You	-446
ward	-447
▁through	-448
rent	-449
▁will	-450
per	-451
▁really	-452
uk	-453
pped	-454
ick	-455
ople	-456
▁going	-457
▁ac	-458
▁turn	-459
▁long	-460
▁two	-461
ach	-462
▁face	-463
▁ran	-464
▁make	-465
irl	-466
▁under	-467
oy	-468
▁part	-469
▁act	-470
You	-471
▁(	-472
aw	-473
▁got	-474
ause	-475
old	-476
▁They	-477
▁need	-478
orm	-479
ree	-480
▁people	-481
▁couldn	-482
ip	-483
ittle	-484
▁first	-485
▁happ	-486
ans	-487
▁V	-488
ted	-489
een	-490
▁let	-491
oss	-492
li	-493
▁There	-494
▁its	-495
▁little	-496
▁fee	-497
▁well	-498
aking	-499
▁girl	-500
▁am	-501
▁ad	-502
ves	-503
og	-504
ince	-505
ich	-506
ened	-507
▁sur	-508
ence	-509
▁bet	-510
▁being	-511
▁day	-512
▁We	-513
▁num	-514
tain	-515
▁away	-516
▁This	-517
▁good	-518
▁own	-519
ily	-520
▁gl	-521
ions	-522
▁rem	-523
uc	-524
agic	-525
te	-526
az	-527
ful	-528
igh	-529
ower	-530
ty	-531
ds	-532
ning	-533
▁rep	-534
ial	-535
ish	-536
ried	-537
▁might	-538
▁asked	-539
▁imp	-540
har	-541
▁ke	-542
▁given	-543
▁per	-544
side	-545
▁sure	-546
▁What	-547
ary	-548
▁start	-549
▁take	-550
▁Chapter	-551
▁real	-552
▁cr	-553
ody	-554
▁mat	-555
so	-556
be	-557
▁sk	-558
ually	-559
▁seemed	-560
▁mom	-561
▁look	-562
oice	-563
▁come	-564
ise	-565
What	-566
ait	-567
less	-568
▁ch	-569
▁che	-570
▁number	-571
▁em	-572
▁chan	-573
▁never	-574
▁har	-575
....	-576
▁end	-577
ather	-578
▁very	-579
oll	-580
ign	-581
▁likely	-582
ub	-583
ons	-584
▁left	-585
▁while	-586
ik	-587
▁though	-588
▁same	-589
▁room	-590
▁1	-591
ark	-592
ably	-593
▁U	-594
▁moment	-595
▁those	-596
▁poin	-597
▁Sh	-598
▁arm	-599
xt	-600
▁wat	-601
▁came	-602
elt	-603
▁ent	-604
ying	-605
ens	-606
ged	-607
vent	-608
oth	-609
ath	-610
ory	-611
▁call	-612
iv	-613
▁“...	-614
▁fin	-615
▁des	-616
▁Al	-617
▁On	-618
▁dec	-619
▁enough	-620
ness	-621
▁where	-622
get	-623
▁things	-624
iss	-625
ible	-626
rence	-627
▁world	-628
▁which	-629
ild	-630
ched	-631
▁pers	-632
▁why	-633
ult	-634
▁anything	-635
▁sec	-636
▁hel	-637
▁magic	-638
hy	-639
▁because	-640
▁dif	-641
ang	-642
▁felt	-643
▁beg	-644
ail	-645
▁dr	-646
owed	-647
ob	-648
It	-649
ont	-650
ount	-651
▁tal	-652
ool	-653
▁op	-654
▁put	-655
▁0	-656
▁How	-657
▁such	-658
▁mean	-659
ook	-660
ared	-661
ense	-662
uh	-663
▁took	-664
▁St	-665
▁kind	-666
▁cour	-667
▁Her	-668
▁has	-669
▁mon	-670
▁range	-671
▁help	-672
▁voice	-673
▁body	-674
ready	-675
aster	-676
att	-677
▁turned	-678
ng	-679
▁words	-680
▁sha	-681
▁already	-682
▁tell	-683
▁use	-684
ok	-685
ug	-686
▁also	-687
ating	-688
▁cle	-689
▁without	-690
▁knew	-691
bably	-692
▁person	-693
les	-694
▁ser	-695
▁wanted	-696
▁sim	-697
▁rec	-698
▁someone	-699
▁wr	-700
▁chapter	-701
▁light	-702
?!”	-703
▁place	-704
▁hard	-705
▁bit	-706
▁bel	-707
▁nothing	-708
▁el	-709
▁once	-710
▁mind	-711
2)	-712
The	-713
▁must	-714
▁power	-715
▁(2)	-716
▁able	-717
▁work	-718
▁inc	-719
hind	-720
▁No	-721
▁attack	-722
ears	-723
▁se	-724
ied	-725
▁sound	-726
▁So	-727
▁probably	-728
ced	-729
Oh	-730
▁hum	-731
ock	-732
▁supp	-733
aa	-734
▁far	-735
▁inst	-736
That	-737
ately	-738
air	-739
▁wouldn	-740
▁fight	-741
▁behind	-742
▁another	-743
ib	-744
vel	-745
▁Even	-746
ss	-747
ations	-748
▁ob	-749
▁ret	-750
▁underst	-751
ual	-752
▁since	-753
▁went	-754
aring	-755
▁When	-756
▁point	-757
ason	-758
pr	-759
▁ear	-760
▁feel	-761
▁war	-762
▁course	-763
▁next	-764
ple	-765
▁His	-766
▁used	-767
▁side	-768
ina	-769
▁bu	-770
▁2	-771
▁may	-772
ected	-773
▁te	-774
na	-775
▁My	-776
▁new	-777
cess	-778
▁After	-779
▁most	-780
▁mo	-781
ained	-782
▁run	-783
▁keep	-784
▁diffe	-785
ways	-786
▁cur	-787
ition	-788
▁contin	-789
ents	-790
eah	-791
▁An	-792
▁poss	-793
▁Law	-794
▁rel	-795
ps	-796
▁comm	-797
ned	-798
▁smile	-799
▁Lawrence	-800
▁sword	-801
▁fam	-802
▁life	-803
ized	-804
av	-805
▁heard	-806
▁car	-807
▁resp	-808
▁seem	-809
ict	-810
▁At	-811
ya	-812
▁hands	-813
ors	-814
sw	-815
▁many	-816
chan	-817
uck	-818
▁mem	-819
▁these	-820
▁ord	-821
▁quest	-822
aught	-823
▁matter	-824
▁With	-825
▁himself	-826
▁Re	-827
▁ass	-828
▁against	-829
▁does	-830
▁both	-831
▁expl	-832
▁spe	-833
▁conf	-834
row	-835
▁stand	-836
▁toward	-837
▁reason	-838
▁sil	-839
uki	-840
▁met	-841
hes	-842
ume	-843
▁always	-844
ering	-845
▁fact	-846
▁set	-847
▁front	-848
▁comple	-849
ither	-850
emy	-851
▁inv	-852
▁Cl	-853
▁wom	-854
▁inf	-855
▁told	-856
▁last	-857
osed	-858
up	-859
uct	-860
ey	-861
ised	-862
▁wait	-863
ier	-864
▁chi	-865
ished	-866
▁each	-867
▁looking	-868
?!	-869
orn	-870
▁wal	-871
▁three	-872
▁pass	-873
▁name	-874
▁care	-875
ute	-876
▁Ar	-877
▁find	-878
oke	-879
▁old	-880
pl	-881
ats	-882
iend	-883
ertain	-884
ret	-885
▁second	-886
▁batt	-887
▁play	-888
ically	-889
▁few	-890
▁hadn	-891
ween	-892
▁def	-893
ided	-894
▁Then	-895
dded	-896
▁monst	-897
▁high	-898
▁dist	-899
▁rest	-900
▁eas	-901
ully	-902
▁started	-903
▁reg	-904
▁great	-905
imes	-906
oor	-907
▁All	-908
ching	-909
lease	-910
ility	-911
▁cons	-912
ho	-913
▁else	-914
▁saw	-915
ident	-916
cept	-917
kay	-918
irect	-919
ical	-920
▁answ	-921
▁heart	-922
ere	-923
▁doing	-924
▁found	-925
▁Ma	-926
▁between	-927
▁gave	-928
▁air	-929
▁ter	-930
▁cha	-931
til	-932
▁different	-933
▁herself	-934
ream	-935
ued	-936
▁understand	-937
▁surpr	-938
▁pret	-939
▁ground	-940
▁myself	-941
ured	-942
▁yet	-943
ross	-944
▁Or	-945
▁express	-946
olo	-947
used	-948
▁form	-949
mm	-950
chool	-951
▁cap	-952
▁quite	-953
▁small	-954
▁friend	-955
its	-956
▁fe	-957
dden	-958
▁clear	-959
▁plan	-960
ead	-961
iet	-962
ize	-963
▁return	-964
▁bre	-965
▁sudden	-966
eep	-967
▁Vol	-968
▁young	-969
ces	-970
▁kill	-971
owing	-972
▁ever	-973
▁sit	-974
▁complete	-975
ten	-976
▁give	-977
▁actually	-978
▁direct	-979
▁wond	-980
▁However	-981
▁Har	-982
▁began	-983
▁along	-984
ian	-985
ix	-986
No	-987
ister	-988
▁ide	-989
▁belie	-990
Yes	-991
▁acc	-992
▁ind	-993
idd	-994
▁feeling	-995
▁least	-996
▁move	-997
outh	-998
vers	-999
▁toget	-1000
▁together	-1001
ash	-1002
▁sn	-1003
▁Is	-1004
▁door	-1005
▁fore	-1006
ings	-1007
ular	-1008
ran	-1009
▁trying	-1010
▁char	-1011
▁aw	-1012
eared	-1013
day	-1014
▁everyone	-1015
Well	-1016
▁hold	-1017
arent	-1018
▁called	-1019
▁bo	-1020
▁battle	-1021
▁until	-1022
ts	-1023
▁strong	-1024
most	-1025
▁inside	-1026
▁child	-1027
ouse	-1028
▁stud	-1029
ield	-1030
▁school	-1031
▁lot	-1032
▁human	-1033
sp	-1034
But	-1035
▁open	-1036
▁dem	-1037
▁guess	-1038
ently	-1039
▁won	-1040
ention	-1041
▁better	-1042
▁happened	-1043
cl	-1044
orry	-1045
▁big	-1046
▁bad	-1047
ger	-1048
▁true	-1049
▁Z	-1050
▁foll	-1051
▁home	-1052
▁Just	-1053
ped	-1054
▁getting	-1055
bed	-1056
▁everything	-1057
ink	-1058
rew	-1059
▁quick	-1060
iously	-1061
So	-1062
▁question	-1063
Th	-1064
▁night	-1065
uring	-1066
▁smil	-1067
uff	-1068
uth	-1069
▁Holo	-1070
ater	-1071
ached	-1072
ef	-1073
▁inter	-1074
▁For	-1075
▁count	-1076
ired	-1077
▁certain	-1078
▁skill	-1079
hh	-1080
▁done	-1081
▁lar	-1082
▁making	-1083
▁‘	-1084
▁ref	-1085
▁case	-1086
We	-1087
ener	-1088
▁black	-1089
to	-1090
▁opp	-1091
▁best	-1092
ale	-1093
▁prot	-1094
▁pretty	-1095
ited	-1096
▁meant	-1097
▁sing	-1098
▁having	-1099
▁Not	-1100
▁stood	-1101
▁close	-1102
▁wind	-1103
ging	-1104
▁Be	-1105
▁dark	-1106
aken	-1107
▁boy	-1108
▁woman	-1109
▁ask	-1110
ura	-1111
▁min	-1112
▁vis	-1113
▁pull	-1114
ins	-1115
▁years	-1116
the	-1117
▁near	-1118
▁tried	-1119
▁sense	-1120
▁eff	-1121
▁spec	-1122
▁expression	-1123
▁finally	-1124
▁pres	-1125
lied	-1126
app	-1127
▁soon	-1128
▁continued	-1129
▁sto	-1130
▁co	-1131
▁read	-1132
▁ext	-1133
sel	-1134
head	-1135
▁hair	-1136
haps	-1137
▁entire	-1138
▁stop	-1139
ner	-1140
uation	-1141
▁hop	-1142
ply	-1143
▁3	-1144
▁anyone	-1145
▁either	-1146
▁hear	-1147
blem	-1148
▁wall	-1149
▁seen	-1150
ird	-1151
▁perf	-1152
▁fine	-1153
▁idea	-1154
▁almost	-1155
▁red	-1156
▁blood	-1157
▁ap	-1158
▁water	-1159
▁ra	-1160
▁"	-1161
▁top	-1162
▁others	-1163
▁fig	-1164
▁nodded	-1165
▁disc	-1166
me	-1167
▁fall	-1168
▁floor	-1169
aced	-1170
▁hur	-1171
▁remem	-1172
▁deep	-1173
▁thinking	-1174
▁mouth	-1175
Yeah	-1176
▁guy	-1177
▁leave	-1178
agon	-1179
▁det	-1180
aged	-1181
ject	-1182
arou	-1183
▁completely	-1184
▁breat	-1185
fully	-1186
▁gaz	-1187
▁es	-1188
aining	-1189
ank	-1190
▁meet	-1191
▁To	-1192
▁single	-1193
▁Le	-1194
▁Pr	-1195
▁isn	-1196
▁coming	-1197
mon	-1198
▁sle	-1199
▁spell	-1200
▁hu	-1201
▁situation	-1202
venture	-1203
▁past	-1204
ah	-1205
▁saying	-1206
akes	-1207
If	-1208
ased	-1209
san	-1210
ai	-1211
▁problem	-1212
▁town	-1213
als	-1214
but	-1215
▁dou	-1216
▁large	-1217
▁cut	-1218
aut	-1219
▁times	-1220
▁family	-1221
▁tre	-1222
alm	-1223
▁guard	-1224
▁sort	-1225
▁simply	-1226
▁mer	-1227
▁sub	-1228
▁class	-1229
ets	-1230
▁enemy	-1231
icked	-1232
▁become	-1233
▁decided	-1234
▁Now	-1235
▁stay	-1236
▁exact	-1237
▁suddenly	-1238
umb	-1239
▁mar	-1240
▁bus	-1241
outarou	-1242
▁May	-1243
ung	-1244
hile	-1245
olog	-1246
ji	-1247
▁lost	-1248
ne	-1249
▁whole	-1250
▁Bl	-1251
▁held	-1252
▁sat	-1253
ined	-1254
▁doesn	-1255
▁fell	-1256
▁half	-1257
▁love	-1258
▁pain	-1259
▁sold	-1260
oot	-1261
iness	-1262
▁believe	-1263
▁vill	-1264
▁full	-1265
rought	-1266
venturer	-1267
cer	-1268
▁Koutarou	-1269
▁lau	-1270
▁replied	-1271
▁Un	-1272
ange	-1273
▁lead	-1274
▁possible	-1275
gth	-1276
▁try	-1277
amp	-1278
▁leg	-1279
ilit	-1280
atur	-1281
pping	-1282
▁rather	-1283
▁King	-1284
▁knight	-1285
▁needed	-1286
▁del	-1287
▁talking	-1288
▁Mar	-1289
▁gone	-1290
▁taken	-1291
▁men	-1292
medi	-1293
▁brought	-1294
▁norm	-1295
▁days	-1296
▁eye	-1297
▁pur	-1298
...?”	-1299
▁bar	-1300
aid	-1301
▁coll	-1302
▁grou	-1303
Huh	-1304
▁build	-1305
ushed	-1306
▁short	-1307
aving	-1308
▁spoke	-1309
▁forward	-1310
▁land	-1311
cc	-1312
ush	-1313
▁taking	-1314
iro	-1315
iced	-1316
▁stra	-1317
▁weap	-1318
ek	-1319
▁prep	-1320
▁Ch	-1321
▁cast	-1322
itting	-1323
▁imag	-1324
▁show	-1325
▁happen	-1326
▁slight	-1327
io	-1328
ressed	-1329
▁appro	-1330
......	-1331
gg	-1332
man	-1333
▁nec	-1334
▁quickly	-1335
▁alone	-1336
aki	-1337
▁list	-1338
▁Why	-1339
▁Em	-1340
▁trans	-1341
ude	-1342
eed	-1343
selves	-1344
▁white	-1345
▁Volume	-1346
▁creat	-1347
▁using	-1348
uz	-1349
where	-1350
▁wrong	-1351
▁king	-1352
▁trou	-1353
jou	-1354
▁Well	-1355
▁doub	-1356
▁girls	-1357
▁bro	-1358
▁Shi	-1359
00	-1360
uu	-1361
incess	-1362
▁stopped	-1363
▁immedi	-1364
like	-1365
▁exper	-1366
ami	-1367
▁ste	-1368
▁bring	-1369
irc	-1370
uke	-1371
▁cor	-1372
▁squ	-1373
▁deal	-1374
ocked	-1375
▁answer	-1376
▁main	-1377
▁arms	-1378
▁order	-1379
▁house	-1380
▁talk	-1381
use	-1382
▁chance	-1383
anger	-1384
▁lear	-1385
▁sign	-1386
▁realized	-1387
oney	-1388
▁fur	-1389
▁appeared	-1390
▁partic	-1391
▁worry	-1392
▁fire	-1393
ana	-1394
▁opened	-1395
▁strange	-1396
▁less	-1397
▁—	-1398
gy	-1399
ures	-1400
This	-1401
ech	-1402
▁Lord	-1403
antly	-1404
▁quiet	-1405
mb	-1406
▁dest	-1407
▁exactly	-1408
▁four	-1409
▁...	-1410
▁outside	-1411
ider	-1412
▁smiled	-1413
▁tri	-1414
▁today	-1415
ending	-1416
▁level	-1417
And	-1418
▁event	-1419
▁requ	-1420
—”	-1421
▁import	-1422
erest	-1423
▁stren	-1424
▁fun	-1425
▁whe	-1426
read	-1427
elf	-1428
▁adv	-1429
▁straight	-1430
ck	-1431
lic	-1432
ortun	-1433
ments	-1434
▁slow	-1435
▁okay	-1436
illed	-1437
ates	-1438
ters	-1439
▁protect	-1440
▁hit	-1441
aces	-1442
▁Do	-1443
▁group	-1444
▁kept	-1445
▁miss	-1446
▁feet	-1447
▁maybe	-1448
▁job	-1449
▁adventurer	-1450
lect	-1451
▁inform	-1452
▁ago	-1453
▁later	-1454
ended	-1455
▁immediately	-1456
▁Ry	-1457
▁abs	-1458
▁Ak	-1459
ific	-1460
▁ca	-1461
▁El	-1462
ience	-1463
yp	-1464
▁city	-1465
▁av	-1466
tered	-1467
bers	-1468
▁across	-1469
▁break	-1470
everal	-1471
▁pos	-1472
cy	-1473
▁swe	-1474
▁weren	-1475
▁sent	-1476
▁fing	-1477
ika	-1478
oud	-1479
ene	-1480
by	-1481
▁Q	-1482
▁monsters	-1483
▁Oh	-1484
ze	-1485
gin	-1486
▁shout	-1487
▁within	-1488
▁change	-1489
▁Com	-1490
irit	-1491
arently	-1492
ior	-1493
▁standing	-1494
▁sister	-1495
ories	-1496
▁perfect	-1497
▁sorry	-1498
ital	-1499
▁cold	-1500
▁word	-1501
ama	-1502
rom	-1503
ike	-1504
▁reached	-1505
▁food	-1506
overed	-1507
▁ev	-1508
▁add	-1509
▁exc	-1510
▁esc	-1511
▁dro	-1512
unge	-1513
▁strength	-1514
▁cat	-1515
arr	-1516
pite	-1517
raw	-1518
▁win	-1519
▁chest	-1520
ially	-1521
▁One	-1522
▁hon	-1523
hank	-1524
ows	-1525
▁danger	-1526
▁pri	-1527
rol	-1528
▁step	-1529
▁sleep	-1530
ori	-1531
▁force	-1532
any	-1533
▁circ	-1534
▁during	-1535
ru	-1536
ides	-1537
▁interest	-1538
▁wonder	-1539
ruct	-1540
▁beaut	-1541
iding	-1542
▁pat	-1543
▁cry	-1544
▁mor	-1545
▁cent	-1546
ising	-1547
ement	-1548
▁low	-1549
no	-1550
▁ed	-1551
▁longer	-1552
onna	-1553
▁Lady	-1554
▁ho	-1555
▁information	-1556
▁disapp	-1557
ames	-1558
▁arri	-1559
▁master	-1560
▁Every	-1561
Hey	-1562
▁bed	-1563
▁money	-1564
▁Maybe	-1565
▁gaze	-1566
▁free	-1567
▁party	-1568
▁sky	-1569
dom	-1570
▁unc	-1571
▁year	-1572
inite	-1573
▁prom	-1574
bl	-1575
▁death	-1576
▁sy	-1577
▁sight	-1578
▁father	-1579
ili	-1580
otion	-1581
uka	-1582
▁line	-1583
▁Am	-1584
▁4	-1585
▁hat	-1586
▁friends	-1587
Ah	-1588
▁happy	-1589
▁Ko	-1590
iddle	-1591
ara	-1592
▁accept	-1593
unch	-1594
iy	-1595
▁convers	-1596
hip	-1597
ife	-1598
▁special	-1599
ient	-1600
▁Me	-1601
aughter	-1602
▁please	-1603
▁book	-1604
▁monster	-1605
▁terr	-1606
▁Of	-1607
▁remember	-1608
ott	-1609
▁moved	-1610
▁pulled	-1611
ump	-1612
▁breath	-1613
▁lo	-1614
▁caught	-1615
▁clos	-1616
▁means	-1617
▁passed	-1618
▁gener	-1619
▁po	-1620
▁bur	-1621
yr	-1622
▁Let	-1623
vious	-1624
iers	-1625
▁several	-1626
ora	-1627
▁dead	-1628
ively	-1629
▁dam	-1630
▁sum	-1631
▁spot	-1632
▁table	-1633
▁thr	-1634
He	-1635
▁.	-1636
ants	-1637
ms	-1638
▁God	-1639
Don	-1640
enty	-1641
emon	-1642
▁clot	-1643
▁area	-1644
▁ang	-1645
▁bas	-1646
▁er	-1647
▁gonna	-1648
aint	-1649
▁coun	-1650
let	-1651
reet	-1652
ming	-1653
▁pract	-1654
Is	-1655
▁upon	-1656
ipped	-1657
▁story	-1658
▁instead	-1659
▁mess	-1660
▁Yuk	-1661
▁walked	-1662
ines	-1663
▁yourself	-1664
▁current	-1665
fic	-1666
▁shook	-1667
arth	-1668
though	-1669
ax	-1670
▁Sp	-1671
▁returned	-1672
▁begin	-1673
▁noticed	-1674
▁Gu	-1675
sed	-1676
How	-1677
▁ten	-1678
▁kid	-1679
▁mother	-1680
▁eat	-1681
▁important	-1682
▁looks	-1683
apan	-1684
▁live	-1685
br	-1686
▁normal	-1687
▁game	-1688
▁While	-1689
▁tou	-1690
▁themselves	-1691
There	-1692
▁Once	-1693
▁middle	-1694
▁hor	-1695
▁High	-1696
▁shot	-1697
▁aff	-1698
▁raised	-1699
▁command	-1700
▁join	-1701
▁doubt	-1702
▁Don	-1703
▁running	-1704
▁distance	-1705
sh	-1706
ashed	-1707
▁itself	-1708
▁village	-1709
▁cre	-1710
▁stuff	-1711
▁effect	-1712
▁weak	-1713
ato	-1714
ages	-1715
ma	-1716
▁sun	-1717
▁ph	-1718
▁Japan	-1719
▁pol	-1720
▁yes	-1721
▁lim	-1722
▁easy	-1723
▁aren	-1724
▁Though	-1725
una	-1726
▁five	-1727
anced	-1728
awa	-1729
iver	-1730
ooking	-1731
...?	-1732
aim	-1733
▁sens	-1734
▁however	-1735
cing	-1736
land	-1737
ison	-1738
▁surprise	-1739
agi	-1740
ungeon	-1741
▁fighting	-1742
▁supposed	-1743
ilt	-1744
▁conversation	-1745
oma	-1746
▁seems	-1747
how	-1748
Why	-1749
▁brother	-1750
ndred	-1751
▁trouble	-1752
what	-1753
▁managed	-1754
▁escap	-1755
aff	-1756
▁comb	-1757
▁slowly	-1758
▁calm	-1759
ex	-1760
iful	-1761
▁living	-1762
▁ahead	-1763
ars	-1764
▁forest	-1765
▁adm	-1766
▁gotten	-1767
iqu	-1768
▁dep	-1769
ract	-1770
initely	-1771
▁particular	-1772
iff	-1773
ibly	-1774
▁apolog	-1775
▁changed	-1776
▁waiting	-1777
▁appear	-1778
▁suc	-1779
ination	-1780
▁Master	-1781
▁building	-1782
umi	-1783
▁fut	-1784
▁expected	-1785
▁speak	-1786
▁die	-1787
▁diffic	-1788
iri	-1789
▁soldiers	-1790
ift	-1791
▁susp	-1792
▁ready	-1793
▁Se	-1794
uly	-1795
▁Ro	-1796
▁equ	-1797
▁natur	-1798
▁exist	-1799
▁rece	-1800
ening	-1801
▁dev	-1802
▁serious	-1803
▁Per	-1804
joy	-1805
▁dream	-1806
▁expect	-1807
empt	-1808
▁mist	-1809
▁occ	-1810
▁huh	-1811
▁demon	-1812
▁anyway	-1813
▁De	-1814
▁Dr	-1815
cent	-1816
▁ones	-1817
onse	-1818
▁loc	-1819
▁whether	-1820
▁lips	-1821
▁nob	-1822
▁hundred	-1823
▁shar	-1824
▁slightly	-1825
▁ple	-1826
ka	-1827
▁5	-1828
▁concer	-1829
not	-1830
▁powerful	-1831
▁position	-1832
▁morning	-1833
▁surround	-1834
over	-1835
oid	-1836
ooks	-1837
▁heav	-1838
▁ann	-1839
▁typ	-1840
▁offic	-1841
▁Kn	-1842
▁self	-1843
▁hope	-1844
▁col	-1845
▁defe	-1846
ery	-1847
ny	-1848
reen	-1849
ko	-1850
▁watched	-1851
▁mut	-1852
▁wide	-1853
▁mur	-1854
▁easily	-1855
▁secret	-1856
▁Wh	-1857
irt	-1858
▁proper	-1859
▁known	-1860
sit	-1861
▁truly	-1862
oof	-1863
▁trave	-1864
▁holding	-1865
▁country	-1866
▁wa	-1867
▁truth	-1868
▁react	-1869
gr	-1870
reed	-1871
▁grin	-1872
▁ins	-1873
iew	-1874
▁fly	-1875
ph	-1876
▁Still	-1877
▁ir	-1878
▁hell	-1879
ances	-1880
▁fle	-1881
▁definitely	-1882
▁Shin	-1883
▁ill	-1884
erv	-1885
udd	-1886
▁perhaps	-1887
▁clearly	-1888
▁Some	-1889
▁finished	-1890
word	-1891
▁fair	-1892
▁forg	-1893
▁Demon	-1894
▁onto	-1895
▁pub	-1896
▁surprised	-1897
▁simple	-1898
room	-1899
▁business	-1900
▁grab	-1901
▁corn	-1902
▁tot	-1903
▁stared	-1904
▁control	-1905
▁working	-1906
▁Gr	-1907
▁shad	-1908
ored	-1909
▁above	-1910
▁figure	-1911
ichi	-1912
▁foc	-1913
▁fear	-1914
▁ended	-1915
▁hall	-1916
echn	-1917
usion	-1918
▁pay	-1919
cious	-1920
▁enjoy	-1921
▁heal	-1922
▁spr	-1923
ountain	-1924
▁foot	-1925
▁treat	-1926
▁space	-1927
▁Kan	-1928
▁unf	-1929
▁Kojou	-1930
ator	-1931
▁result	-1932
▁Min	-1933
▁hun	-1934
▁sigh	-1935
▁usual	-1936
▁stat	-1937
▁tem	-1938
▁ener	-1939
▁ign	-1940
▁difficult	-1941
▁blade	-1942
▁beast	-1943
▁shoulder	-1944
ossible	-1945
▁followed	-1946
▁path	-1947
▁certainly	-1948
▁became	-1949
▁makes	-1950
▁filled	-1951
iting	-1952
aper	-1953
▁wearing	-1954
In	-1955
Do	-1956
▁seeing	-1957
▁mass	-1958
▁closed	-1959
▁laugh	-1960
▁worried	-1961
tern	-1962
▁Chi	-1963
▁response	-1964
su	-1965
▁cross	-1966
▁soft	-1967
▁armor	-1968
▁bare	-1969
▁fail	-1970
ric	-1971
▁super	-1972
▁Your	-1973
▁future	-1974
ision	-1975
▁support	-1976
▁blue	-1977
aaaa	-1978
▁From	-1979
lier	-1980
▁hesit	-1981
▁weapon	-1982
▁prod	-1983
kn	-1984
wor	-1985
ived	-1986
▁safe	-1987
▁lay	-1988
▁Did	-1989
▁attention	-1990
▁merchan	-1991
oto	-1992
Hmm	-1993
more	-1994
int	-1995
ilia	-1996
▁among	-1997
▁Mr	-1998
▁shouted	-1999
▁spread	-2000
▁students	-2001
▁inn	-2002
▁late	-2003
ection	-2004
▁und	-2005
reme	-2006
▁whatever	-2007
ii	-2008
ane	-2009
▁respond	-2010
▁Magic	-2011
▁wish	-2012
olute	-2013
▁moving	-2014
▁beautiful	-2015
▁stri	-2016
▁Ad	-2017
My	-2018
▁ele	-2019
we	-2020
▁choice	-2021
!!”	-2022
▁thanks	-2023
▁mana	-2024
▁mis	-2025
▁exam	-2026
▁nice	-2027
irm	-2028
▁scream	-2029
▁Since	-2030
▁shr	-2031
▁speed	-2032
▁techn	-2033
▁members	-2034
aru	-2035
▁Ne	-2036
▁emb	-2037
▁Any	-2038
▁Their	-2039
▁art	-2040
▁giving	-2041
Are	-2042
▁children	-2043
▁direction	-2044
▁destro	-2045
▁amount	-2046
sc	-2047
▁Ac	-2048
▁consider	-2049
▁burn	-2050
ices	-2051
▁Fl	-2052
▁dri	-2053
▁rese	-2054
▁Was	-2055
▁charac	-2056
▁impossible	-2057
▁clothes	-2058
▁trust	-2059
ecause	-2060
uel	-2061
oming	-2062
All	-2063
olved	-2064
▁honest	-2065
▁worth	-2066
▁loud	-2067
▁adventurers	-2068
▁tone	-2069
▁mere	-2070
orrow	-2071
hered	-2072
ken	-2073
▁watching	-2074
▁Maj	-2075
▁spl	-2076
▁leaving	-2077
▁pot	-2078
umped	-2079
mer	-2080
▁scr	-2081
ality	-2082
ature	-2083
▁mention	-2084
▁answered	-2085
▁sol	-2086
▁common	-2087
▁suppose	-2088
ative	-2089
ilities	-2090
▁cond	-2091
▁walking	-2092
iliar	-2093
come	-2094
ask	-2095
▁ce	-2096
▁request	-2097
▁prof	-2098
▁energy	-2099
▁earlier	-2100
▁ship	-2101
▁worked	-2102
ta	-2103
▁whis	-2104
ugg	-2105
aka	-2106
ief	-2107
▁carry	-2108
▁hot	-2109
▁En	-2110
▁ru	-2111
ining	-2112
ified	-2113
acing	-2114
rupt	-2115
ilar	-2116
lt	-2117
ler	-2118
idence	-2119
Okay	-2120
▁fa	-2121
▁feelings	-2122
ibility	-2123
ones	-2124
▁tast	-2125
icious	-2126
▁present	-2127
▁arrived	-2128
▁tar	-2129
ival	-2130
▁report	-2131
▁bright	-2132
▁sitting	-2133
▁Yu	-2134
▁humans	-2135
velop	-2136
ari	-2137
rect	-2138
olf	-2139
rod	-2140
▁guild	-2141
you	-2142
ighed	-2143
▁understood	-2144
▁Perhaps	-2145
▁knights	-2146
▁sugg	-2147
▁suggest	-2148
▁coin	-2149
▁ears	-2150
▁Dark	-2151
▁Are	-2152
▁hurt	-2153
▁training	-2154
▁desc	-2155
▁ve	-2156
▁Col	-2157
uss	-2158
▁window	-2159
my	-2160
▁guys	-2161
▁hour	-2162
▁shoulders	-2163
for	-2164
Then	-2165
▁fast	-2166
owers	-2167
▁legs	-2168
▁road	-2169
▁neck	-2170
ards	-2171
▁vol	-2172
▁age	-2173
▁item	-2174
bs	-2175
▁Br	-2176
ities	-2177
▁attempt	-2178
▁Miss	-2179
aj	-2180
▁skin	-2181
▁bes	-2182
pire	-2183
izing	-2184
▁skills	-2185
▁thoughts	-2186
avor	-2187
▁save	-2188
ously	-2189
▁conn	-2190
▁lose	-2191
ades	-2192
ousand	-2193
rigin	-2194
oul	-2195
▁showed	-2196
ches	-2197
▁sear	-2198
▁val	-2199
▁ability	-2200
▁memory	-2201
ots	-2202
aching	-2203
hel	-2204
▁mod	-2205
▁gold	-2206
aned	-2207
hys	-2208
▁remained	-2209
▁bott	-2210
af	-2211
▁sounded	-2212
AA	-2213
▁women	-2214
▁roy	-2215
▁wound	-2216
▁watch	-2217
▁headed	-2218
▁oppon	-2219
▁vict	-2220
▁dragon	-2221
▁tears	-2222
ron	-2223
ror	-2224
uri	-2225
eth	-2226
▁Knight	-2227
."	-2228
owd	-2229
▁match	-2230
▁field	-2231
▁destroy	-2232
▁*	-2233
▁mountain	-2234
▁silence	-2235
acked	-2236
iece	-2237
▁cas	-2238
hanks	-2239
ics	-2240
▁See	-2241
▁entr	-2242
▁By	-2243
▁enc	-2244
ster	-2245
time	-2246
▁draw	-2247
▁haven	-2248
▁magical	-2249
ries	-2250
ustr	-2251
▁picked	-2252
▁Princess	-2253
▁closer	-2254
miss	-2255
ris	-2256
▁cra	-2257
▁covered	-2258
▁further	-2259
▁Fran	-2260
▁meeting	-2261
▁20	-2262
isted	-2263
fort	-2264
▁dangerous	-2265
aha	-2266
yond	-2267
▁spirit	-2268
oring	-2269
Let	-2270
itch	-2271
▁somewhere	-2272
▁shall	-2273
▁huge	-2274
▁beat	-2275
port	-2276
▁beyond	-2277
▁exchan	-2278
▁med	-2279
Not	-2280
asure	-2281
▁tight	-2282
They	-2283
▁imagine	-2284
bing	-2285
▁instant	-2286
▁Su	-2287
icking	-2288
▁explained	-2289
▁capital	-2290
▁pointed	-2291
▁shock	-2292
oki	-2293
▁incred	-2294
▁month	-2295
▁similar	-2296
▁drag	-2297
▁par	-2298
▁opt	-2299
▁target	-2300
ilitary	-2301
▁......	-2302
▁royal	-2303
gu	-2304
▁thousand	-2305
oh	-2306
▁gri	-2307
▁tea	-2308
▁object	-2309
▁9	-2310
▁six	-2311
▁heavy	-2312
face	-2313
▁team	-2314
▁hide	-2315
▁daughter	-2316
▁reach	-2317
uya	-2318
ourn	-2319
▁wondered	-2320
▁sighed	-2321
itude	-2322
itted	-2323
light	-2324
▁Like	-2325
▁escape	-2326
fer	-2327
▁App	-2328
▁lady	-2329
▁somehow	-2330
▁stone	-2331
▁extreme	-2332
▁apparently	-2333
▁effort	-2334
uto	-2335
idden	-2336
ert	-2337
ails	-2338
inking	-2339
▁silent	-2340
▁6	-2341
using	-2342
▁Tr	-2343
▁center	-2344
▁experience	-2345
▁Pl	-2346
▁absolute	-2347
▁added	-2348
▁phys	-2349
▁gun	-2350
▁corner	-2351
▁student	-2352
▁yeah	-2353
▁eng	-2354
osh	-2355
▁compl	-2356
▁entirely	-2357
▁const	-2358
▁castle	-2359
ists	-2360
▁asking	-2361
▁pal	-2362
bered	-2363
ata	-2364
▁view	-2365
isf	-2366
▁killed	-2367
▁bag	-2368
omp	-2369
▁third	-2370
▁warm	-2371
▁Des	-2372
ency	-2373
vin	-2374
uy	-2375
▁paper	-2376
St	-2377
▁incl	-2378
elled	-2379
▁serv	-2380
▁telling	-2381
▁cover	-2382
ghed	-2383
▁often	-2384
▁darkness	-2385
roll	-2386
ushing	-2387
ceed	-2388
▁thank	-2389
▁despite	-2390
▁hero	-2391
▁Who	-2392
▁giant	-2393
▁wood	-2394
ademy	-2395
▁muttered	-2396
play	-2397
arrass	-2398
▁princess	-2399
▁Ke	-2400
▁unable	-2401
iling	-2402
▁obs	-2403
▁maid	-2404
▁military	-2405
▁forced	-2406
cha	-2407
Now	-2408
▁Wor	-2409
▁combat	-2410
Wh	-2411
utes	-2412
▁anymore	-2413
▁test	-2414
stem	-2415
▁necess	-2416
▁state	-2417
umbled	-2418
▁glass	-2419
▁shop	-2420
▁Sha	-2421
▁grand	-2422
eks	-2423
▁Tw	-2424
▁Please	-2425
▁Ain	-2426
airs	-2427
ecially	-2428
▁directly	-2429
▁apart	-2430
▁impress	-2431
▁weapons	-2432
▁sad	-2433
........	-2434
▁pop	-2435
ique	-2436
ita	-2437
▁aside	-2438
orth	-2439
els	-2440
▁stepped	-2441
▁Kur	-2442
▁turning	-2443
▁sal	-2444
▁shut	-2445
ese	-2446
▁Ser	-2447
▁Before	-2448
▁div	-2449
Who	-2450
▁silver	-2451
▁embarrass	-2452
that	-2453
ensive	-2454
▁buy	-2455
Hm	-2456
▁Its	-2457
osp	-2458
▁pan	-2459
▁speaking	-2460
▁mus	-2461
▁weird	-2462
▁comes	-2463
▁meat	-2464
▁grew	-2465
She	-2466
uthor	-2467
▁led	-2468
▁Bell	-2469
▁damage	-2470
▁quietly	-2471
▁roll	-2472
iko	-2473
▁Ex	-2474
gan	-2475
irty	-2476
aled	-2477
▁glanced	-2478
▁Lu	-2479
▁origin	-2480
lessly	-2481
urch	-2482
▁noble	-2483
▁explain	-2484
...!”	-2485
▁Ka	-2486
!!	-2487
sidered	-2488
▁tor	-2489
lex	-2490
Thank	-2491
esty	-2492
▁surv	-2493
▁parent	-2494
inary	-2495
▁meaning	-2496
▁avoid	-2497
▁id	-2498
▁fort	-2499
ino	-2500
riage	-2501
vern	-2502
▁natural	-2503
sing	-2504
▁shouldn	-2505
ral	-2506
▁god	-2507
ingly	-2508
ledge	-2509
▁store	-2510
▁prov	-2511
▁barely	-2512
ki	-2513
kun	-2514
▁grow	-2515
▁nearly	-2516
▁attacks	-2517
ference	-2518
lis	-2519
▁remembered	-2520
ima	-2521
▁clean	-2522
▁flying	-2523
▁Sl	-2524
osing	-2525
▁chair	-2526
▁hig	-2527
erm	-2528
▁Ta	-2529
▁familiar	-2530
yl	-2531
▁starting	-2532
▁figured	-2533
▁considered	-2534
▁learned	-2535
▁visit	-2536
▁ant	-2537
▁walk	-2538
▁forget	-2539
▁indeed	-2540
▁notice	-2541
▁sharp	-2542
ization	-2543
▁army	-2544
▁grabbed	-2545
▁piece	-2546
▁Alus	-2547
▁activ	-2548
iety	-2549
▁hang	-2550
uce	-2551
▁rul	-2552
▁empt	-2553
oved	-2554
▁fingers	-2555
▁spent	-2556
▁check	-2557
cho	-2558
▁prepared	-2559
▁thro	-2560
tering	-2561
▁threat	-2562
aded	-2563
▁z	-2564
▁reve	-2565
▁laughed	-2566
▁press	-2567
▁handle	-2568
▁staff	-2569
illy	-2570
unt	-2571
▁fool	-2572
▁lives	-2573
▁sett	-2574
▁seat	-2575
▁died	-2576
ading	-2577
▁Although	-2578
Um	-2579
▁cute	-2580
▁memories	-2581
▁Those	-2582
ovel	-2583
▁Sak	-2584
▁ris	-2585
▁ut	-2586
▁lit	-2587
▁Right	-2588
ius	-2589
▁glad	-2590
▁Alice	-2591
idering	-2592
▁murm	-2593
itten	-2594
▁lab	-2595
▁placed	-2596
▁leap	-2597
▁author	-2598
▁luck	-2599
zy	-2600
▁none	-2601
▁var	-2602
ament	-2603
▁decl	-2604
▁Rio	-2605
▁Inst	-2606
▁alive	-2607
▁learn	-2608
Of	-2609
▁gra	-2610
▁bath	-2611
▁allowed	-2612
▁fro	-2613
▁swords	-2614
▁minutes	-2615
▁success	-2616
omi	-2617
▁contact	-2618
▁round	-2619
▁thick	-2620
▁lift	-2621
imi	-2622
ogn	-2623
▁gent	-2624
apped	-2625
▁surface	-2626
▁process	-2627
ception	-2628
▁First	-2629
▁desper	-2630
▁nearby	-2631
ains	-2632
ustom	-2633
▁Everyone	-2634
right	-2635
ortunately	-2636
▁rare	-2637
▁relations	-2638
▁lived	-2639
ixed	-2640
▁edge	-2641
▁dungeon	-2642
▁aware	-2643
atsuki	-2644
▁exha	-2645
▁mine	-2646
OO	-2647
▁throw	-2648
▁correct	-2649
▁finger	-2650
▁shap	-2651
▁flo	-2652
bit	-2653
amed	-2654
▁7	-2655
viously	-2656
▁final	-2657
▁entrance	-2658
erial	-2659
ald	-2660
▁respons	-2661
▁Mik	-2662
▁Cont	-2663
▁follow	-2664
▁forgot	-2665
▁color	-2666
aimed	-2667
▁playing	-2668
unk	-2669
▁Orp	-2670
▁peace	-2671
▁sounds	-2672
pper	-2673
▁opponent	-2674
▁Ainz	-2675
▁Haruh	-2676
▁system	-2677
usted	-2678
▁disp	-2679
ometimes	-2680
▁blow	-2681
▁Wait	-2682
aked	-2683
▁pick	-2684
▁cause	-2685
▁soc	-2686
▁odd	-2687
▁regard	-2688
▁cou	-2689
▁putting	-2690
▁Go	-2691
▁staring	-2692
▁type	-2693
▁af	-2694
▁involved	-2695
▁gather	-2696
▁dut	-2697
▁sell	-2698
iny	-2699
▁twenty	-2700
▁books	-2701
▁repe	-2702
▁opportun	-2703
▁walls	-2704
aven	-2705
▁oper	-2706
▁terri	-2707
▁crowd	-2708
ploy	-2709
ugged	-2710
▁wore	-2711
▁purp	-2712
▁entered	-2713
▁ball	-2714
▁received	-2715
▁Ab	-2716
▁Im	-2717
inct	-2718
▁gate	-2719
▁continue	-2720
▁bear	-2721
ira	-2722
▁earth	-2723
▁favor	-2724
▁Gl	-2725
▁surely	-2726
sue	-2727
ording	-2728
▁tow	-2729
ims	-2730
▁strugg	-2731
▁gentle	-2732
ective	-2733
▁send	-2734
▁empty	-2735
▁bri	-2736
▁wra	-2737
▁bull	-2738
▁cool	-2739
▁obvious	-2740
ien	-2741
▁Char	-2742
▁Ah	-2743
▁10	-2744
▁est	-2745
▁Thank	-2746
▁Despite	-2747
▁stronger	-2748
ope	-2749
▁vi	-2750
▁Sword	-2751
▁van	-2752
▁bow	-2753
▁glance	-2754
war	-2755
▁hung	-2756
▁towards	-2757
uced	-2758
ishing	-2759
▁summon	-2760
▁parents	-2761
asp	-2762
▁faint	-2763
▁Tak	-2764
▁tom	-2765
ague	-2766
▁Say	-2767
ees	-2768
Wait	-2769
rr	-2770
▁nor	-2771
▁Sora	-2772
▁Miy	-2773
acher	-2774
▁cried	-2775
athered	-2776
rec	-2777
umed	-2778
▁catch	-2779
▁due	-2780
perial	-2781
▁incre	-2782
Uh	-2783
▁concl	-2784
▁extremely	-2785
iment	-2786
cil	-2787
▁merchant	-2788
▁recogn	-2789
▁prince	-2790
eel	-2791
▁Because	-2792
As	-2793
▁counter	-2794
acks	-2795
▁rum	-2796
▁fallen	-2797
go	-2798
▁lord	-2799
▁older	-2800
▁pict	-2801
oyal	-2802
▁Cr	-2803
pered	-2804
rier	-2805
▁aim	-2806
ges	-2807
▁emer	-2808
▁Shiz	-2809
▁broke	-2810
▁8	-2811
ky	-2812
emies	-2813
essed	-2814
▁Mis	-2815
▁Majesty	-2816
▁“......	-2817
▁Reg	-2818
ony	-2819
▁pun	-2820
▁prop	-2821
▁sweet	-2822
▁cannot	-2823
▁lie	-2824
imin	-2825
▁hardly	-2826
▁satisf	-2827
▁burst	-2828
Right	-2829
▁stuck	-2830
▁stup	-2831
Your	-2832
▁tail	-2833
▁orders	-2834
▁mid	-2835
nderst	-2836
▁pushed	-2837
▁Ay	-2838
▁carried	-2839
▁’	-2840
▁Dragon	-2841
azing	-2842
Please	-2843
une	-2844
oe	-2845
▁defeat	-2846
ager	-2847
mission	-2848
▁Can	-2849
▁beside	-2850
▁phone	-2851
und	-2852
▁suit	-2853
ER	-2854
▁disappeared	-2855
omb	-2856
▁eventually	-2857
arily	-2858
▁worse	-2859
▁gen	-2860
▁kingdom	-2861
▁knowledge	-2862
▁rub	-2863
▁horse	-2864
Sh	-2865
▁Apparently	-2866
▁size	-2867
▁discuss	-2868
▁box	-2869
▁Yes	-2870
▁greet	-2871
▁presence	-2872
▁perfectly	-2873
▁born	-2874
▁Pro	-2875
▁neg	-2876
inging	-2877
iled	-2878
ground	-2879
▁agreed	-2880
▁log	-2881
zen	-2882
▁reality	-2883
▁pi	-2884
▁rid	-2885
▁throat	-2886
pecially	-2887
▁These	-2888
ote	-2889
▁band	-2890
antage	-2891
raid	-2892
▁caused	-2893
▁broken	-2894
▁includ	-2895
▁shield	-2896
erd	-2897
otte	-2898
oshi	-2899
▁member	-2900
▁pee	-2901
▁character	-2902
▁gathered	-2903
Just	-2904
der	-2905
▁created	-2906
elle	-2907
▁base	-2908
▁leader	-2909
▁suff	-2910
aur	-2911
ires	-2912
▁maj	-2913
▁Orphen	-2914
awn	-2915
aves	-2916
▁drink	-2917
▁dropped	-2918
▁news	-2919
▁ways	-2920
▁early	-2921
itle	-2922
▁inj	-2923
ives	-2924
▁rose	-2925
▁anim	-2926
▁prec	-2927
▁smiling	-2928
.’	-2929
▁develop	-2930
▁Empire	-2931
▁faces	-2932
▁allow	-2933
eces	-2934
▁enemies	-2935
ution	-2936
▁reply	-2937
▁lying	-2938
▁lower	-2939
▁struck	-2940
uma	-2941
▁nobles	-2942
▁cheeks	-2943
▁drew	-2944
▁collap	-2945
ism	-2946
▁Sir	-2947
▁excl	-2948
line	-2949
▁seconds	-2950
eal	-2951
▁Yukina	-2952
▁wip	-2953
ena	-2954
▁Our	-2955
andon	-2956
▁Comp	-2957
▁cost	-2958
▁realize	-2959
▁acting	-2960
▁scene	-2961
iel	-2962
work	-2963
▁post	-2964
▁ur	-2965
▁mir	-2966
▁company	-2967
▁son	-2968
ocking	-2969
achi	-2970
nel	-2971
Sorry	-2972
▁sour	-2973
▁nerv	-2974
▁tall	-2975
Good	-2976
▁loss	-2977
ern	-2978
ba	-2979
ashi	-2980
▁display	-2981
▁seriously	-2982
ivid	-2983
▁lack	-2984
▁somewhat	-2985
arch	-2986
via	-2987
▁general	-2988
▁keeping	-2989
▁offer	-2990
▁opportunity	-2991
urika	-2992
oru	-2993
▁material	-2994
Did	-2995
▁dress	-2996
▁difference	-2997
ica	-2998
▁stom	-2999
▁stupid	-3000
▁Wat	-3001
▁Haruhiro	-3002
▁tomorrow	-3003
▁remind	-3004
▁approached	-3005
▁massive	-3006
▁Great	-3007
▁Japanese	-3008
ako	-3009
wise	-3010
▁Tan	-3011
▁mark	-3012
▁determ	-3013
▁address	-3014
▁personal	-3015
▁warri	-3016
▁Highness	-3017
aro	-3018
▁mach	-3019
▁Ari	-3020
▁design	-3021
▁club	-3022
eneath	-3023
▁shadow	-3024
▁weight	-3025
▁whispered	-3026
alled	-3027
▁pieces	-3028
▁invest	-3029
▁former	-3030
▁Ts	-3031
▁busy	-3032
▁ver	-3033
rest	-3034
oon	-3035
▁hearing	-3036
aku	-3037
asion	-3038
▁“...”	-3039
▁sea	-3040
▁viol	-3041
▁pure	-3042
▁jumped	-3043
yle	-3044
▁stret	-3045
▁finish	-3046
▁absolutely	-3047
▁Man	-3048
▁Guild	-3049
▁Jin	-3050
▁pale	-3051
▁angry	-3052
peror	-3053
while	-3054
▁circum	-3055
▁Qu	-3056
▁goes	-3057
▁rain	-3058
▁attend	-3059
▁rate	-3060
▁custom	-3061
oku	-3062
▁letter	-3063
ode	-3064
▁places	-3065
▁blank	-3066
Re	-3067
▁brain	-3068
▁Kingdom	-3069
▁tremb	-3070
esides	-3071
▁attacked	-3072
▁boss	-3073
anding	-3074
otions	-3075
▁brief	-3076
▁belong	-3077
hand	-3078
▁usually	-3079
▁touch	-3080
▁responded	-3081
▁charge	-3082
eneral	-3083
▁appearance	-3084
uyuki	-3085
▁knowing	-3086
▁concern	-3087
atic	-3088
▁eating	-3089
▁tree	-3090
▁emotion	-3091
itory	-3092
▁capable	-3093
▁necessary	-3094
▁especially	-3095
▁murmured	-3096
▁Yen	-3097
istance	-3098
▁Having	-3099
inc	-3100
▁Academy	-3101
▁nation	-3102
▁totally	-3103
▁fully	-3104
▁pair	-3105
▁offered	-3106
▁abilities	-3107
▁eight	-3108
▁fought	-3109
▁whose	-3110
▁Yurika	-3111
▁heads	-3112
▁Tok	-3113
aze	-3114
▁oppos	-3115
▁wild	-3116
▁World	-3117
▁unif	-3118
▁issue	-3119
▁plenty	-3120
▁Haruyuki	-3121
▁imm	-3122
oooo	-3123
▁soul	-3124
▁Theia	-3125
inner	-3126
▁pray	-3127
ga	-3128
▁abandon	-3129
▁Fin	-3130
▁decision	-3131
▁extra	-3132
▁chec	-3133
▁currently	-3134
roud	-3135
iving	-3136
▁purpose	-3137
▁particularly	-3138
▁relief	-3139
▁wrapped	-3140
▁anger	-3141
▁flew	-3142
▁circumst	-3143
▁Ryoma	-3144
▁Sc	-3145
▁reading	-3146
▁metal	-3147
▁gro	-3148
▁firm	-3149
pected	-3150
▁afraid	-3151
▁Kir	-3152
▁clim	-3153
▁hate	-3154
▁hist	-3155
▁gobl	-3156
▁descri	-3157
ues	-3158
▁palace	-3159
▁cal	-3160
▁beha	-3161
▁Something	-3162
▁bir	-3163
▁points	-3164
▁major	-3165
▁forces	-3166
▁below	-3167
▁smell	-3168
▁Hir	-3169
▁choo	-3170
bo	-3171
▁wave	-3172
▁sweat	-3173
▁physical	-3174
eople	-3175
▁bottom	-3176
ession	-3177
▁bell	-3178
▁strate	-3179
zed	-3180
set	-3181
men	-3182
▁Ho	-3183
ashing	-3184
▁nose	-3185
▁host	-3186
▁respect	-3187
▁bother	-3188
▁pressed	-3189
▁Ev	-3190
▁godd	-3191
ray	-3192
▁reaction	-3193
▁mad	-3194
▁relax	-3195
esh	-3196
▁echo	-3197
llen	-3198
yo	-3199
▁following	-3200
▁Mon	-3201
▁says	-3202
▁calling	-3203
▁Tats	-3204
oom	-3205
▁novel	-3206
ousuke	-3207
well	-3208
▁Ai	-3209
▁ice	-3210
▁tong	-3211
▁street	-3212
erved	-3213
▁Earth	-3214
▁Mer	-3215
▁grad	-3216
sion	-3217
▁Dungeon	-3218
▁regret	-3219
▁teacher	-3220
▁Nag	-3221
▁Kiri	-3222
▁fist	-3223
▁hidden	-3224
co	-3225
▁uniform	-3226
▁smo	-3227
form	-3228
mes	-3229
▁instruct	-3230
▁higher	-3231
▁happening	-3232
ests	-3233
itor	-3234
▁Con	-3235
▁aut	-3236
anae	-3237
▁rev	-3238
▁compan	-3239
kward	-3240
▁previous	-3241
het	-3242
▁gently	-3243
▁ment	-3244
▁questions	-3245
▁terms	-3246
▁beneath	-3247
anted	-3248
▁normally	-3249
▁spells	-3250
elia	-3251
▁capt	-3252
resh	-3253
▁volume	-3254
▁fault	-3255
ndeed	-3256
lish	-3257
▁relationship	-3258
▁Tou	-3259
▁shape	-3260
▁explan	-3261
rid	-3262
▁Ed	-3263
▁Black	-3264
▁threw	-3265
▁teeth	-3266
▁beginning	-3267
▁coo	-3268
ension	-3269
▁Ich	-3270
▁introd	-3271
▁helped	-3272
▁circumstances	-3273
▁lines	-3274
napped	-3275
terday	-3276
▁awkward	-3277
▁saved	-3278
▁written	-3279
▁works	-3280
anna	-3281
▁taste	-3282
▁hiding	-3283
lder	-3284
▁planning	-3285
▁carefully	-3286
▁train	-3287
▁non	-3288
rel	-3289
aling	-3290
▁careful	-3291
ailed	-3292
▁crossed	-3293
▁incident	-3294
▁snow	-3295
▁jud	-3296
lo	-3297
▁rough	-3298
▁surprising	-3299
▁events	-3300
▁action	-3301
▁Up	-3302
▁exchange	-3303
asha	-3304
▁Sil	-3305
itions	-3306
▁Ruu	-3307
aba	-3308
field	-3309
enly	-3310
▁Pri	-3311
▁wand	-3312
▁public	-3313
▁knows	-3314
▁organ	-3315
▁stomach	-3316
▁New	-3317
▁grown	-3318
aging	-3319
ring	-3320
▁bowed	-3321
▁dod	-3322
iot	-3323
▁trees	-3324
▁ident	-3325
▁heat	-3326
▁Where	-3327
▁Only	-3328
mp	-3329
▁split	-3330
▁Two	-3331
yu	-3332
▁strike	-3333
▁mood	-3334
▁clan	-3335
▁concerned	-3336
▁goal	-3337
▁aver	-3338
▁guards	-3339
OR	-3340
▁hole	-3341
▁hours	-3342
▁cand	-3343
▁unex	-3344
▁bod	-3345
▁falling	-3346
cher	-3347
epar	-3348
lem	-3349
▁pen	-3350
▁spir	-3351
ifying	-3352
▁Mom	-3353
▁frown	-3354
▁maintain	-3355
▁tongue	-3356
▁mission	-3357
▁Thanks	-3358
acy	-3359
▁subject	-3360
ordin	-3361
leep	-3362
▁nature	-3363
▁carriage	-3364
▁Without	-3365
▁goddess	-3366
▁Mia	-3367
▁actual	-3368
▁letting	-3369
▁built	-3370
▁younger	-3371
▁announ	-3372
▁Part	-3373
▁Darkness	-3374
estival	-3375
ifted	-3376
iction	-3377
▁cheer	-3378
▁annoy	-3379
▁swall	-3380
▁rock	-3381
▁easier	-3382
▁opening	-3383
▁Mi	-3384
enji	-3385
▁details	-3386
▁focused	-3387
▁War	-3388
min	-3389
▁kids	-3390
body	-3391
▁overw	-3392
jected	-3393
▁items	-3394
▁chat	-3395
▁agree	-3396
know	-3397
▁intention	-3398
▁sometimes	-3399
▁Kiriha	-3400
▁sir	-3401
▁cheek	-3402
▁Kaz	-3403
▁sand	-3404
illing	-3405
▁Yeah	-3406
▁flames	-3407
gar	-3408
ae	-3409
▁merely	-3410
▁stage	-3411
hod	-3412
val	-3413
▁board	-3414
▁forth	-3415
▁wings	-3416
▁separ	-3417
▁comfort	-3418
▁More	-3419
▁focus	-3420
▁desk	-3421
▁vo	-3422
▁lifted	-3423
▁possibility	-3424
erve	-3425
▁Tatsuya	-3426
▁explos	-3427
▁travel	-3428
▁fit	-3429
▁elect	-3430
▁rout	-3431
she	-3432
▁la	-3433
▁advantage	-3434
▁green	-3435
▁neither	-3436
off	-3437
▁excited	-3438
▁Han	-3439
▁explanation	-3440
ton	-3441
▁pa	-3442
▁Cap	-3443
▁journ	-3444
▁opposite	-3445
iven	-3446
▁sho	-3447
▁Asuna	-3448
▁tiny	-3449
▁employ	-3450
▁regular	-3451
ltim	-3452
▁victory	-3453
▁listen	-3454
▁wife	-3455
▁Mas	-3456
▁rele	-3457
hee	-3458
▁acqu	-3459
▁station	-3460
▁practically	-3461
chie	-3462
▁General	-3463
▁pred	-3464
▁swung	-3465
iate	-3466
bert	-3467
▁message	-3468
▁rad	-3469
opyr	-3470
opyright	-3471
aps	-3472
▁tool	-3473
▁spear	-3474
rit	-3475
▁Sure	-3476
▁ceiling	-3477
fet	-3478
▁demand	-3479
▁perform	-3480
▁creature	-3481
▁arrow	-3482
▁occur	-3483
▁tired	-3484
▁fan	-3485
▁port	-3486
▁carrying	-3487
▁intell	-3488
▁believed	-3489
▁tim	-3490
iance	-3491
▁dinner	-3492
▁unexpected	-3493
rawn	-3494
enp	-3495
▁permission	-3496
▁yesterday	-3497
▁commander	-3498
▁considering	-3499
▁mot	-3500
uko	-3501
itched	-3502
▁poison	-3503
▁mag	-3504
▁Marie	-3505
▁den	-3506
▁total	-3507
ential	-3508
▁example	-3509
▁investig	-3510
▁shoot	-3511
▁vision	-3512
▁confident	-3513
▁aud	-3514
▁silently	-3515
▁confused	-3516
▁nod	-3517
uta	-3518
▁barrier	-3519
▁Ky	-3520
▁Ag	-3521
▁Instead	-3522
▁problems	-3523
of	-3524
▁sac	-3525
▁gods	-3526
▁moon	-3527
eless	-3528
▁based	-3529
hem	-3530
?"	-3531
por	-3532
enn	-3533
▁error	-3534
▁office	-3535
olve	-3536
▁method	-3537
▁Would	-3538
▁bound	-3539
iple	-3540
▁nowhere	-3541
ui	-3542
▁failed	-3543
▁chuck	-3544
▁deeply	-3545
▁becoming	-3546
▁star	-3547
▁surrounded	-3548
▁promise	-3549
ender	-3550
▁waited	-3551
▁bal	-3552
chen	-3553
ancing	-3554
▁Tanya	-3555
asped	-3556
▁glared	-3557
fl	-3558
ruction	-3559
cle	-3560
▁soldier	-3561
▁pier	-3562
▁Prince	-3563
▁remaining	-3564
asant	-3565
▁create	-3566
▁possibly	-3567
▁ordinary	-3568
▁prior	-3569
▁individ	-3570
lin	-3571
▁history	-3572
▁pill	-3573
▁destroyed	-3574
▁gets	-3575
▁Mean	-3576
▁Come	-3577
▁bodies	-3578
aws	-3579
▁reflect	-3580
▁fif	-3581
▁Yet	-3582
▁fat	-3583
▁sake	-3584
▁waste	-3585
▁key	-3586
▁vamp	-3587
▁repeated	-3588
▁overwhel	-3589
▁dog	-3590
istic	-3591
▁duty	-3592
▁practice	-3593
▁apologize	-3594
▁anx	-3595
▁thrust	-3596
orce	-3597
▁“—	-3598
▁fre	-3599
gress	-3600
▁Sanae	-3601
▁Act	-3602
▁worst	-3603
ration	-3604
atched	-3605
Mm	-3606
▁Oli	-3607
▁Besides	-3608
bel	-3609
▁Seeing	-3610
▁fish	-3611
▁wit	-3612
ueen	-3613
▁camp	-3614
asy	-3615
▁smooth	-3616
▁thirty	-3617
▁fac	-3618
atter	-3619
rict	-3620
▁unit	-3621
▁TH	-3622
▁interrupt	-3623
▁product	-3624
▁minute	-3625
born	-3626
▁til	-3627
▁poor	-3628
▁accepted	-3629
▁proud	-3630
wh	-3631
▁happens	-3632
▁tele	-3633
▁ordered	-3634
▁card	-3635
▁knife	-3636
angu	-3637
▁picture	-3638
icing	-3639
▁drop	-3640
▁role	-3641
▁terrible	-3642
▁battlefield	-3643
▁Count	-3644
uit	-3645
▁infl	-3646
▁emotions	-3647
▁scared	-3648
oops	-3649
▁Which	-3650
▁touched	-3651
icks	-3652
▁Clan	-3653
▁orc	-3654
▁rap	-3655
▁Church	-3656
▁opin	-3657
▁tent	-3658
▁mistake	-3659
▁gotta	-3660
**	-3661
▁pra	-3662
▁Comm	-3663
▁feels	-3664
bled	-3665
known	-3666
▁record	-3667
▁powers	-3668
▁various	-3669
▁amazing	-3670
▁hurry	-3671
riend	-3672
osen	-3673
▁week	-3674
▁fate	-3675
ette	-3676
▁rushed	-3677
▁meters	-3678
▁shaking	-3679
▁defense	-3680
▁trip	-3681
uddenly	-3682
▁image	-3683
▁map	-3684
▁Rent	-3685
enj	-3686
▁Queen	-3687
▁Cla	-3688
▁vanished	-3689
▁mentioned	-3690
▁unlike	-3691
oken	-3692
▁naturally	-3693
AT	-3694
▁Priest	-3695
looking	-3696
▁feat	-3697
arn	-3698
▁interested	-3699
▁nervous	-3700
▁prevent	-3701
IN	-3702
▁basically	-3703
▁wel	-3704
▁outf	-3705
▁loved	-3706
▁sick	-3707
▁priv	-3708
stal	-3709
▁stick	-3710
▁fresh	-3711
▁original	-3712
hern	-3713
▁elf	-3714
▁Beast	-3715
▁ring	-3716
icul	-3717
▁unus	-3718
▁arg	-3719
▁heading	-3720
back	-3721
Al	-3722
▁Lud	-3723
vey	-3724
▁impro	-3725
▁impact	-3726
▁Suz	-3727
▁tip	-3728
ball	-3729
▁liked	-3730
▁rob	-3731
▁spring	-3732
imson	-3733
▁commun	-3734
▁ep	-3735
▁instantly	-3736
range	-3737
▁faster	-3738
hard	-3739
atch	-3740
orted	-3741
▁experien	-3742
▁Suddenly	-3743
▁suggested	-3744
▁north	-3745
▁ton	-3746
ye	-3747
▁leaned	-3748
era	-3749
▁knees	-3750
com	-3751
When	-3752
▁forever	-3753
▁individual	-3754
▁actions	-3755
▁wolf	-3756
cell	-3757
eremon	-3758
▁apprec	-3759
urd	-3760
▁showing	-3761
▁Loki	-3762
▁mult	-3763
▁desire	-3764
▁circle	-3765
▁pock	-3766
▁faced	-3767
▁search	-3768
▁contr	-3769
▁lunch	-3770
▁Luc	-3771
acle	-3772
▁pride	-3773
▁kit	-3774
attered	-3775
pse	-3776
▁ble	-3777
ented	-3778
▁write	-3779
▁gig	-3780
▁research	-3781
ury	-3782
inth	-3783
erdin	-3784
▁pet	-3785
erdinand	-3786
▁Ang	-3787
▁joy	-3788
▁moments	-3789
▁equip	-3790
agger	-3791
host	-3792
arted	-3793
▁cult	-3794
rie	-3795
▁Most	-3796
▁screen	-3797
▁status	-3798
▁Hor	-3799
▁conscious	-3800
▁golden	-3801
asing	-3802
▁intent	-3803
▁ban	-3804
▁plans	-3805
▁sleeping	-3806
▁grinned	-3807
▁steps	-3808
▁confusion	-3809
uge	-3810
▁anywhere	-3811
oint	-3812
▁series	-3813
ction	-3814
▁desp	-3815
▁iron	-3816
▁stayed	-3817
▁numbers	-3818
▁players	-3819
▁planned	-3820
▁challen	-3821
▁compet	-3822
▁Could	-3823
,’	-3824
▁Charl	-3825
▁tough	-3826
ding	-3827
▁writing	-3828
▁Leon	-3829
▁rear	-3830
▁trick	-3831
▁served	-3832
▁jump	-3833
▁hanging	-3834
▁palm	-3835
▁growing	-3836
▁forehead	-3837
▁Sat	-3838
▁fem	-3839
Come	-3840
▁wants	-3841
▁temple	-3842
▁listening	-3843
cen	-3844
▁option	-3845
hhh	-3846
▁earn	-3847
uno	-3848
▁spend	-3849
▁bread	-3850
rop	-3851
▁title	-3852
Any	-3853
▁evil	-3854
▁White	-3855
▁accom	-3856
▁Four	-3857
ctor	-3858
▁losing	-3859
▁pou	-3860
▁snapped	-3861
▁yell	-3862
▁comment	-3863
class	-3864
bly	-3865
▁excuse	-3866
▁Royal	-3867
▁incredible	-3868
▁Both	-3869
Ex	-3870
▁toss	-3871
▁journey	-3872
arm	-3873
▁Holy	-3874
▁official	-3875
▁bran	-3876
For	-3877
May	-3878
▁kinda	-3879
▁impression	-3880
▁manage	-3881
▁source	-3882
▁Sk	-3883
▁contract	-3884
▁handed	-3885
▁Ferdinand	-3886
just	-3887
▁exclaimed	-3888
▁utter	-3889
ium	-3890
▁talked	-3891
▁forgotten	-3892
estly	-3893
▁accomp	-3894
omao	-3895
▁lad	-3896
▁leading	-3897
▁Fle	-3898
pha	-3899
▁played	-3900
▁frustr	-3901
▁govern	-3902
▁Maou	-3903
▁twisted	-3904
▁movements	-3905
▁takes	-3906
▁names	-3907
▁properly	-3908
sama	-3909
▁warning	-3910
Ha	-3911
mit	-3912
▁shocked	-3913
▁di	-3914
ables	-3915
ON	-3916
▁Maki	-3917
ux	-3918
▁15	-3919
▁choose	-3920
▁months	-3921
uzz	-3922
▁Blood	-3923
▁ben	-3924
▁env	-3925
iring	-3926
▁Maomao	-3927
▁risk	-3928
▁stories	-3929
▁imagined	-3930
▁slipped	-3931
▁yours	-3932
▁upper	-3933
▁Fam	-3934
eng	-3935
▁demons	-3936
▁tear	-3937
▁precise	-3938
isa	-3939
▁incredibly	-3940
▁Meanwhile	-3941
aph	-3942
▁Nob	-3943
cul	-3944
▁assumed	-3945
▁deb	-3946
▁defeated	-3947
uman	-3948
▁decide	-3949
▁Company	-3950
▁lowered	-3951
icate	-3952
▁Ph	-3953
lished	-3954
▁bought	-3955
▁Syl	-3956
▁noise	-3957
▁territory	-3958
000	-3959
▁Ms	-3960
▁river	-3961
▁push	-3962
olded	-3963
▁repl	-3964
▁admit	-3965
▁price	-3966
▁text	-3967
▁inval	-3968
ean	-3969
▁wooden	-3970
AR	-3971
▁willing	-3972
▁bringing	-3973
▁Az	-3974
▁killing	-3975
aming	-3976
uten	-3977
▁ya	-3978
▁dumb	-3979
▁obviously	-3980
▁flesh	-3981
▁hurried	-3982
▁Copyright	-3983
rer	-3984
▁:	-3985
▁ess	-3986
▁Class	-3987
▁mel	-3988
▁stairs	-3989
▁rank	-3990
▁wear	-3991
aul	-3992
▁12	-3993
▁crying	-3994
▁Another	-3995
Even	-3996
was	-3997
▁ignored	-3998
eak	-3999
▁retreat	-4000
▁intense	-4001
▁lone	-4002
umin	-4003
▁Taichi	-4004
▁landed	-4005
▁joined	-4006
▁location	-4007
met	-4008
▁insp	-4009
▁anc	-4010
angs	-4011
▁wondering	-4012
str	-4013
ils	-4014
ology	-4015
▁popular	-4016
amn	-4017
▁equipment	-4018
▁Hero	-4019
oha	-4020
▁value	-4021
hood	-4022
▁dry	-4023
▁manner	-4024
idly	-4025
irito	-4026
▁merchants	-4027
ogi	-4028
),	-4029
ify	-4030
iod	-4031
ero	-4032
▁wis	-4033
bor	-4034
Can	-4035
▁da	-4036
▁bitter	-4037
▁cooking	-4038
▁prepare	-4039
▁captain	-4040
▁Na	-4041
mar	-4042
▁Alex	-4043
▁summer	-4044
asons	-4045
▁yelled	-4046
▁chosen	-4047
▁Car	-4048
▁Sa	-4049
▁share	-4050
▁Tokyo	-4051
Really	-4052
▁laughing	-4053
iga	-4054
▁pin	-4055
▁traveling	-4056
▁wine	-4057
▁helping	-4058
▁11	-4059
▁parts	-4060
▁gest	-4061
ida	-4062
▁Shiro	-4063
▁dear	-4064
▁pointer	-4065
▁myster	-4066
ella	-4067
▁limit	-4068
▁grim	-4069
Sure	-4070
▁ultim	-4071
vior	-4072
▁cup	-4073
Wha	-4074
igned	-4075
ammed	-4076
▁Kami	-4077
▁Yukin	-4078
▁gazed	-4079
▁nar	-4080
▁Eng	-4081
▁owner	-4082
▁couple	-4083
▁machine	-4084
▁Had	-4085
▁stre	-4086
▁ceremon	-4087
ulf	-4088
▁dressed	-4089
dess	-4090
▁Fa	-4091
▁Cons	-4092
inked	-4093
ormed	-4094
▁kitchen	-4095
▁warrior	-4096
▁Army	-4097
▁Blue	-4098
▁paid	-4099
arden	-4100
▁flat	-4101
▁particip	-4102
▁19	-4103
rain	-4104
▁***	-4105
master	-4106
▁voices	-4107
iant	-4108
▁note	-4109
▁Anyway	-4110
▁House	-4111
▁chose	-4112
▁idiot	-4113
▁innoc	-4114
▁understanding	-4115
▁arch	-4116
▁bunch	-4117
▁gap	-4118
▁proof	-4119
▁boys	-4120
▁spirits	-4121
▁relie	-4122
ander	-4123
ua	-4124
▁Cha	-4125
▁invalid	-4126
year	-4127
▁characters	-4128
▁facing	-4129
▁lightly	-4130
yn	-4131
▁Contents	-4132
ians	-4133
▁asleep	-4134
▁fired	-4135
▁queen	-4136
▁serve	-4137
▁instinct	-4138
▁troops	-4139
itive	-4140
▁countless	-4141
▁delicious	-4142
▁dust	-4143
▁beauty	-4144
▁formed	-4145
ises	-4146
▁required	-4147
▁existence	-4148
▁joke	-4149
▁-	-4150
▁plain	-4151
kes	-4152
aya	-4153
celer	-4154
▁adult	-4155
▁Claire	-4156
ox	-4157
▁Here	-4158
▁assume	-4159
▁evening	-4160
▁resemb	-4161
▁Okay	-4162
▁suspicious	-4163
▁surrounding	-4164
iya	-4165
▁harder	-4166
.)	-4167
▁honestly	-4168
ios	-4169
zemy	-4170
▁setting	-4171
zemyne	-4172
▁nil	-4173
▁reward	-4174
▁Club	-4175
▁craft	-4176
▁cam	-4177
fa	-4178
▁missing	-4179
▁grate	-4180
▁achie	-4181
ounded	-4182
▁results	-4183
▁sending	-4184
Novel	-4185
ument	-4186
▁Red	-4187
▁dere	-4188
▁wonderful	-4189
▁City	-4190
▁drawn	-4191
▁froze	-4192
▁bab	-4193
antic	-4194
▁Light	-4195
▁Good	-4196
▁wid	-4197
▁recently	-4198
iber	-4199
▁pocket	-4200
▁rolled	-4201
▁seven	-4202
rig	-4203
▁vague	-4204
...!	-4205
▁polit	-4206
▁ghost	-4207
▁legend	-4208
▁People	-4209
▁Rentaro	-4210
▁runtime	-4211
▁dereference	-4212
▁Jul	-4213
▁panic	-4214
▁speech	-4215
aud	-4216
ceeded	-4217
▁blind	-4218
▁prompt	-4219
▁smoke	-4220
▁rumors	-4221
▁Tom	-4222
▁confir	-4223
▁breathing	-4224
bk	-4225
▁kicked	-4226
▁Harumi	-4227
▁echoed	-4228
▁nobody	-4229
▁rules	-4230
▁ing	-4231
▁influ	-4232
▁Shir	-4233
▁sides	-4234
▁dig	-4235
ourry	-4236
book	-4237
▁bat	-4238
wa	-4239
▁Kirito	-4240
ano	-4241
mosp	-4242
▁IS	-4243
aries	-4244
▁convin	-4245
▁Te	-4246
▁subordin	-4247
▁birth	-4248
▁whenever	-4249
▁Out	-4250
▁satisfied	-4251
▁Get	-4252
step	-4253
▁Ing	-4254
▁Kou	-4255
▁whom	-4256
▁declared	-4257
▁narr	-4258
▁prefer	-4259
▁wanna	-4260
▁occasion	-4261
ibr	-4262
idge	-4263
▁Aiz	-4264
urity	-4265
▁transl	-4266
▁irrit	-4267
essor	-4268
▁fier	-4269
▁une	-4270
▁atmosp	-4271
▁disappear	-4272
zing	-4273
xy	-4274
▁health	-4275
aturally	-4276
▁paused	-4277
▁condition	-4278
▁Touya	-4279
ales	-4280
▁enter	-4281
▁remain	-4282
▁useful	-4283
iku	-4284
▁desperately	-4285
▁Acc	-4286
▁although	-4287
▁curious	-4288
▁civ	-4289
lement	-4290
▁fright	-4291
▁honor	-4292
▁south	-4293
▁um	-4294
ishment	-4295
ills	-4296
fortunately	-4297
▁Ash	-4298
▁meal	-4299
▁trembling	-4300
▁summoned	-4301
ela	-4302
▁strategy	-4303
▁percent	-4304
▁dee	-4305
▁ourselves	-4306
▁liter	-4307
hest	-4308
▁stab	-4309
nderstood	-4310
▁pressure	-4311
▁screamed	-4312
▁collapsed	-4313
▁Wataru	-4314
▁officer	-4315
▁Duke	-4316
▁Rimi	-4317
▁mask	-4318
▁rang	-4319
▁elder	-4320
▁chin	-4321
▁crazy	-4322
▁ast	-4323
▁Mil	-4324
aning	-4325
▁precious	-4326
▁approach	-4327
▁laid	-4328
▁passing	-4329
▁chief	-4330
▁Gourry	-4331
▁locked	-4332
▁prepar	-4333
On	-4334
▁201	-4335
▁coins	-4336
▁doc	-4337
▁height	-4338
▁island	-4339
sure	-4340
▁Hol	-4341
▁Charlotte	-4342
▁Girl	-4343
▁hoping	-4344
▁tilted	-4345
▁Inglis	-4346
▁Qing	-4347
▁backward	-4348
▁Allen	-4349
▁stiff	-4350
▁witness	-4351
alth	-4352
▁heaven	-4353
orcerer	-4354
HH	-4355
▁Ryuu	-4356
▁treated	-4357
hold	-4358
▁Eris	-4359
▁claim	-4360
▁sorts	-4361
▁atmosphere	-4362
▁causing	-4363
▁hesitation	-4364
▁pulling	-4365
ayer	-4366
▁shrugged	-4367
▁assass	-4368
▁wake	-4369
iation	-4370
astic	-4371
▁Ruth	-4372
ipping	-4373
▁mansion	-4374
▁conclusion	-4375
▁roof	-4376
utenant	-4377
▁dwar	-4378
Thanks	-4379
▁waved	-4380
yrinth	-4381
▁thrown	-4382
uj	-4383
▁shared	-4384
▁refer	-4385
▁conv	-4386
upp	-4387
▁crack	-4388
woo	-4389
▁Huh	-4390
To	-4391
▁fixed	-4392
umbling	-4393
▁imperial	-4394
▁vers	-4395
▁blame	-4396
▁cloud	-4397
▁reasons	-4398
zard	-4399
▁Inc	-4400
ito	-4401
▁exception	-4402
▁Chr	-4403
▁ske	-4404
▁confidence	-4405
action	-4406
▁period	-4407
ias	-4408
▁connected	-4409
▁shame	-4410
▁relieved	-4411
▁Next	-4412
▁listened	-4413
▁betray	-4414
▁Rep	-4415
▁frag	-4416
▁festival	-4417
▁Rem	-4418
▁intern	-4419
orough	-4420
▁narrow	-4421
▁opinion	-4422
▁burned	-4423
▁broad	-4424
▁Arc	-4425
ormally	-4426
▁Someone	-4427
▁Rozemyne	-4428
▁casually	-4429
▁removed	-4430
ength	-4431
hhhh	-4432
▁changing	-4433
idents	-4434
▁reminded	-4435
...,”	-4436
▁interesting	-4437
▁accompl	-4438
bow	-4439
▁uh	-4440
▁squee	-4441
omed	-4442
▁Sn	-4443
iles	-4444
▁resc	-4445
▁alc	-4446
▁Hey	-4447
▁compared	-4448
▁grateful	-4449
▁attitude	-4450
▁player	-4451
▁Lilly	-4452
hia	-4453
▁emperor	-4454
etsu	-4455
▁addition	-4456
sy	-4457
band	-4458
▁Nothing	-4459
▁apprent	-4460
▁ridicul	-4461
mber	-4462
▁Lea	-4463
▁fairly	-4464
▁Haruka	-4465
▁init	-4466
▁rule	-4467
▁conven	-4468
bey	-4469
Indeed	-4470
▁crit	-4471
▁cit	-4472
▁holy	-4473
▁partner	-4474
▁langu	-4475
ensei	-4476
▁checked	-4477
▁dim	-4478
arant	-4479
▁burning	-4480
ients	-4481
▁throughout	-4482
▁Res	-4483
ker	-4484
▁Hmm	-4485
▁Table	-4486
▁kinds	-4487
▁matters	-4488
text	-4489
▁Sec	-4490
▁accur	-4491
▁topic	-4492
▁doll	-4493
▁Goddess	-4494
▁stun	-4495
haired	-4496
▁Iz	-4497
▁thorough	-4498
▁classroom	-4499
ption	-4500
ospital	-4501
anta	-4502
omen	-4503
▁avo	-4504
▁spark	-4505
▁Eve	-4506
▁shake	-4507
Sp	-4508
▁stretched	-4509
ev	-4510
▁Three	-4511
ipp	-4512
▁Does	-4513
▁stro	-4514
▁hallway	-4515
▁Dev	-4516
▁clothing	-4517
▁approaching	-4518
▁Ten	-4519
▁wield	-4520
▁Looking	-4521
reg	-4522
▁scar	-4523
▁caut	-4524
▁staying	-4525
▁taught	-4526
▁cell	-4527
▁mill	-4528
▁outfit	-4529
Wow	-4530
iu	-4531
gram	-4532
▁charged	-4533
▁data	-4534
oles	-4535
▁Also	-4536
▁spotted	-4537
▁wiped	-4538
▁greater	-4539
▁unusual	-4540
▁grasp	-4541
order	-4542
▁grip	-4543
▁kick	-4544
ido	-4545
▁THE	-4546
▁leaves	-4547
AAAA	-4548
▁enorm	-4549
▁teach	-4550
▁intended	-4551
▁block	-4552
▁suspic	-4553
▁attract	-4554
▁mercen	-4555
▁Will	-4556
▁Gil	-4557
▁sou	-4558
▁Bar	-4559
hetic	-4560
▁slee	-4561
▁Take	-4562
ulation	-4563
▁ignore	-4564
uine	-4565
▁blast	-4566
▁embarrassed	-4567
oka	-4568
▁flash	-4569
▁bigger	-4570
gest	-4571
▁council	-4572
▁elves	-4573
▁motion	-4574
▁Never	-4575
▁vast	-4576
▁Osc	-4577
bles	-4578
ault	-4579
▁bra	-4580
▁Finally	-4581
▁happily	-4582
▁scen	-4583
▁flashed	-4584
▁wished	-4585
▁laughter	-4586
▁begun	-4587
lebr	-4588
▁uncom	-4589
▁autom	-4590
▁cloth	-4591
▁liqu	-4592
kin	-4593
▁drawing	-4594
▁discovered	-4595
agers	-4596
▁Over	-4597
▁Thus	-4598
▁core	-4599
Where	-4600
▁element	-4601
▁Ren	-4602
▁medic	-4603
▁date	-4604
▁negot	-4605
▁named	-4606
▁Nan	-4607
▁female	-4608
▁genuine	-4609
▁Meg	-4610
house	-4611
▁intellig	-4612
icia	-4613
▁cop	-4614
▁uncons	-4615
▁Leg	-4616
iest	-4617
▁hint	-4618
▁breaking	-4619
isha	-4620
▁dom	-4621
▁cook	-4622
▁track	-4623
▁fruit	-4624
▁coinc	-4625
rog	-4626
▁Sorry	-4627
▁winter	-4628
▁guarant	-4629
▁balance	-4630
▁personality	-4631
▁file	-4632
▁Each	-4633
▁accident	-4634
▁squad	-4635
▁police	-4636
▁task	-4637
▁settled	-4638
▁knocked	-4639
under	-4640
▁mental	-4641
▁laun	-4642
▁impressed	-4643
▁Kamijou	-4644
▁La	-4645
▁clen	-4646
▁tact	-4647
▁mysterious	-4648
▁trade	-4649
▁Hon	-4650
▁connect	-4651
▁behavior	-4652
▁comr	-4653
▁needs	-4654
isc	-4655
ational	-4656
non	-4657
▁goblins	-4658
ocks	-4659
▁consciousness	-4660
▁race	-4661
▁trap	-4662
▁English	-4663
▁enormous	-4664
▁underground	-4665
An	-4666
▁tower	-4667
brow	-4668
▁hospital	-4669
▁estab	-4670
▁Other	-4671
▁church	-4672
▁Familia	-4673
▁Cat	-4674
▁pit	-4675
▁Everything	-4676
▁neigh	-4677
▁abandoned	-4678
▁citiz	-4679
▁slip	-4680
▁swallowed	-4681
▁safet	-4682
▁responsibility	-4683
▁narrowed	-4684
▁technique	-4685
▁depart	-4686
▁frowned	-4687
▁duel	-4688
▁Emi	-4689
▁rage	-4690
bling	-4691
▁scary	-4692
▁Hun	-4693
▁complain	-4694
▁advance	-4695
alt	-4696
▁Hild	-4697
uo	-4698
▁harm	-4699
▁coff	-4700
▁safety	-4701
▁faith	-4702
▁shadows	-4703
▁court	-4704
▁sensed	-4705
▁creatures	-4706
▁Elf	-4707
▁inher	-4708
▁Christ	-4709
▁doors	-4710
enpai	-4711
▁13	-4712
▁fart	-4713
▁gathering	-4714
▁trad	-4715
▁song	-4716
arters	-4717
▁eyebrow	-4718
▁Kat	-4719
▁slightest	-4720
ape	-4721
▁publis	-4722
▁recognized	-4723
ashion	-4724
▁priest	-4725
atively	-4726
▁raise	-4727
▁pleased	-4728
At	-4729
▁existed	-4730
▁mage	-4731
▁Adventurer	-4732
▁returning	-4733
irou	-4734
▁shifted	-4735
▁exhausted	-4736
▁Gob	-4737
▁survive	-4738
▁hasn	-4739
▁vampire	-4740
▁atop	-4741
▁Oscar	-4742
▁Gab	-4743
▁frozen	-4744
▁gle	-4745
▁style	-4746
▁impressive	-4747
▁refused	-4748
▁bite	-4749
ointed	-4750
▁stream	-4751
▁celebr	-4752
▁ador	-4753
▁hoped	-4754
▁pack	-4755
▁controll	-4756
▁potential	-4757
estia	-4758
icated	-4759
▁wounds	-4760
▁excit	-4761
▁square	-4762
▁possessed	-4763
▁unique	-4764
eg	-4765
olk	-4766
▁animal	-4767
▁released	-4768
▁Cover	-4769
▁repres	-4770
▁grass	-4771
▁libr	-4772
yes	-4773
▁14	-4774
▁unn	-4775
inasha	-4776
▁government	-4777
▁According	-4778
AN	-4779
steps	-4780
▁Fr	-4781
▁including	-4782
▁advice	-4783
▁famous	-4784
▁Jinwoo	-4785
▁fund	-4786
▁agre	-4787
▁firmly	-4788
rowed	-4789
uded	-4790
▁Bet	-4791
▁hus	-4792
▁larger	-4793
▁terror	-4794
Maybe	-4795
olored	-4796
osal	-4797
▁buildings	-4798
lings	-4799
▁foolish	-4800
▁strongest	-4801
▁swift	-4802
▁mostly	-4803
uro	-4804
▁Father	-4805
▁finding	-4806
▁ate	-4807
▁fix	-4808
▁amb	-4809
▁route	-4810
▁rely	-4811
▁glim	-4812
▁awful	-4813
fia	-4814
▁teleport	-4815
▁Tinasha	-4816
▁smaller	-4817
vest	-4818
gency	-4819
▁poured	-4820
ners	-4821
▁games	-4822
▁plate	-4823
▁ceremony	-4824
▁content	-4825
icip	-4826
▁study	-4827
con	-4828
raft	-4829
▁Imperial	-4830
▁attacking	-4831
ule	-4832
▁rights	-4833
▁enjoying	-4834
▁Cor	-4835
▁flowers	-4836
▁Ol	-4837
▁casual	-4838
qua	-4839
▁smart	-4840
▁rooms	-4841
apping	-4842
▁welcome	-4843
hara	-4844
they	-4845
▁Raf	-4846
▁gain	-4847
then	-4848
Here	-4849
▁average	-4850
la	-4851
Whoa	-4852
▁Plus	-4853
onel	-4854
▁ancient	-4855
omm	-4856
uments	-4857
▁excitement	-4858
▁glasses	-4859
▁waist	-4860
▁continu	-4861
phan	-4862
▁explosion	-4863
▁gradually	-4864
▁Fleur	-4865
ario	-4866
▁trem	-4867
aly	-4868
▁president	-4869
▁stam	-4870
fast	-4871
▁afford	-4872
▁fal	-4873
▁gray	-4874
▁brow	-4875
▁senses	-4876
▁von	-4877
▁responsible	-4878
▁Lian	-4879
▁puzz	-4880
▁dragged	-4881
ips	-4882
▁leaped	-4883
▁villagers	-4884
▁Back	-4885
▁sacr	-4886
By	-4887
▁recall	-4888
ribut	-4889
zz	-4890
▁hers	-4891
ivered	-4892
▁seve	-4893
▁occurred	-4894
▁cleared	-4895
▁talent	-4896
eph	-4897
▁thus	-4898
oted	-4899
▁greatest	-4900
▁bones	-4901
▁confirm	-4902
ushi	-4903
▁society	-4904
▁searching	-4905
▁terrifying	-4906
▁Yuki	-4907
▁polite	-4908
▁Ill	-4909
▁bird	-4910
▁Akira	-4911
▁flame	-4912
▁restaur	-4913
▁Captain	-4914
▁beasts	-4915
▁effective	-4916
haha	-4917
▁Cay	-4918
▁Glenn	-4919
▁divine	-4920
▁obtain	-4921
▁overwhelming	-4922
▁sooner	-4923
ih	-4924
▁experienced	-4925
▁End	-4926
▁blinked	-4927
▁boo	-4928
agement	-4929
entially	-4930
▁security	-4931
▁cutting	-4932
▁Ell	-4933
▁breast	-4934
▁dealing	-4935
▁hated	-4936
▁scattered	-4937
▁mountains	-4938
▁egg	-4939
▁gar	-4940
asper	-4941
▁complic	-4942
do	-4943
▁vac	-4944
▁recalled	-4945
▁Yume	-4946
▁empire	-4947
▁manga	-4948
ada	-4949
▁calmly	-4950
ether	-4951
▁accompan	-4952
▁Shogi	-4953
▁ease	-4954
▁reb	-4955
fall	-4956
▁footsteps	-4957
▁tun	-4958
▁Hestia	-4959
▁Hel	-4960
▁garden	-4961
amura	-4962
II	-4963
▁harsh	-4964
▁undead	-4965
78	-4966
▁healing	-4967
key	-4968
▁distant	-4969
pth	-4970
▁Miz	-4971
▁Naturally	-4972
▁diss	-4973
▁Ter	-4974
ivers	-4975
▁highly	-4976
▁lucky	-4977
▁countries	-4978
aria	-4979
).	-4980
▁Time	-4981
▁Cayna	-4982
ogue	-4983
▁lined	-4984
▁hast	-4985
▁tightly	-4986
▁chuckled	-4987
erc	-4988
▁married	-4989
▁steel	-4990
▁alt	-4991
ealous	-4992
▁Chiho	-4993
▁fifty	-4994
▁forgive	-4995
▁interrupted	-4996
oko	-4997
power	-4998
▁otherwise	-4999
uru	-5000
erson	-5001
▁floating	-5002
▁myst	-5003
aker	-5004
oshita	-5005
▁drinking	-5006
▁Actually	-5007
▁resolve	-5008
▁Fre	-5009
▁scent	-5010
itation	-5011
▁(1	-5012
▁friendly	-5013
uts	-5014
inted	-5015
▁imagination	-5016
▁Sousuke	-5017
▁exec	-5018
▁Unfortunately	-5019
▁About	-5020
ators	-5021
▁collect	-5022
ww	-5023
▁Under	-5024
▁aura	-5025
▁effects	-5026
▁conce	-5027
▁shat	-5028
▁spoken	-5029
▁ingred	-5030
▁mob	-5031
uries	-5032
this	-5033
▁mixed	-5034
▁youth	-5035
▁dreams	-5036
pri	-5037
▁fierce	-5038
▁skilled	-5039
▁surroundings	-5040
▁fists	-5041
▁signific	-5042
▁Rei	-5043
▁movement	-5044
▁activated	-5045
heh	-5046
▁project	-5047
▁reaching	-5048
itan	-5049
▁concent	-5050
▁Horik	-5051
▁Normally	-5052
ado	-5053
venge	-5054
ification	-5055
▁Being	-5056
▁Given	-5057
elve	-5058
▁faction	-5059
▁deeper	-5060
▁Alt	-5061
▁fil	-5062
pective	-5063
▁absor	-5064
eeee	-5065
▁rot	-5066
gn	-5067
▁Should	-5068
▁shown	-5069
▁pointing	-5070
▁cruel	-5071
▁glare	-5072
▁agreement	-5073
▁rude	-5074
▁select	-5075
▁escaped	-5076
ailing	-5077
▁Olivia	-5078
▁twice	-5079
Heh	-5080
▁limited	-5081
▁fer	-5082
▁Maria	-5083
▁length	-5084
▁throne	-5085
▁lights	-5086
▁battles	-5087
▁Minori	-5088
rank	-5089
▁puff	-5090
▁private	-5091
▁fant	-5092
▁desperate	-5093
▁Afterword	-5094
▁flower	-5095
▁despair	-5096
▁access	-5097
▁foreign	-5098
▁gigg	-5099
▁tonight	-5100
▁Unlike	-5101
▁Angel	-5102
▁upset	-5103
▁included	-5104
▁confirmed	-5105
▁bridge	-5106
▁fill	-5107
fire	-5108
ouses	-5109
shi	-5110
▁superior	-5111
▁baby	-5112
▁knee	-5113
▁tossed	-5114
utz	-5115
▁cow	-5116
▁apprentice	-5117
▁season	-5118
▁cho	-5119
▁temper	-5120
▁musc	-5121
▁illustr	-5122
▁multiple	-5123
▁publisher	-5124
▁fellow	-5125
ahara	-5126
▁appreciate	-5127
,000	-5128
▁curse	-5129
▁convinced	-5130
▁region	-5131
▁goods	-5132
▁envelop	-5133
▁unle	-5134
▁Cast	-5135
orts	-5136
▁Tor	-5137
▁east	-5138
▁knock	-5139
▁alongside	-5140
mates	-5141
sword	-5142
▁mil	-5143
▁Gabri	-5144
▁unknown	-5145
ieutenant	-5146
uchi	-5147
hus	-5148
▁anticip	-5149
▁farther	-5150
▁defensive	-5151
keep	-5152
▁clut	-5153
▁spin	-5154
▁Pal	-5155
▁abrupt	-5156
▁coat	-5157
▁18	-5158
ublic	-5159
andom	-5160
▁acted	-5161
▁injured	-5162
Anyway	-5163
▁Regis	-5164
▁intend	-5165
sha	-5166
▁slammed	-5167
Hmph	-5168
▁civil	-5169
▁Ben	-5170
▁waves	-5171
▁library	-5172
▁ships	-5173
▁surprisingly	-5174
▁solid	-5175
uses	-5176
▁music	-5177
▁male	-5178
▁funny	-5179
▁encoun	-5180
aying	-5181
▁Sara	-5182
EE	-5183
▁Sm	-5184
olt	-5185
▁damn	-5186
▁Hik	-5187
▁features	-5188
▁language	-5189
icy	-5190
▁spun	-5191
▁efforts	-5192
Understood	-5193
▁account	-5194
▁organization	-5195
▁except	-5196
▁flow	-5197
▁customers	-5198
▁softly	-5199
▁Div	-5200
▁utterly	-5201
▁decor	-5202
▁Holmes	-5203
▁jealous	-5204
▁Val	-5205
▁Rose	-5206
ortal	-5207
▁humanity	-5208
▁crystal	-5209
cri	-5210
▁hood	-5211
▁refuse	-5212
▁lightning	-5213
▁16	-5214
uming	-5215
▁depth	-5216
▁Yukinoshita	-5217
▁Big	-5218
ola	-5219
▁greeted	-5220
▁revealed	-5221
isting	-5222
Ar	-5223
press	-5224
▁dish	-5225
▁husband	-5226
▁pushing	-5227
▁progress	-5228
▁tied	-5229
▁lately	-5230
▁preparing	-5231
▁“......”	-5232
▁Sac	-5233
▁pace	-5234
▁benef	-5235
▁audience	-5236
▁whisper	-5237
▁shell	-5238
▁delight	-5239
▁treasure	-5240
sa	-5241
▁specific	-5242
▁thread	-5243
▁useless	-5244
aito	-5245
quis	-5246
▁throwing	-5247
world	-5248
icle	-5249
▁occup	-5250
▁Ind	-5251
▁Silver	-5252
▁Event	-5253
chi	-5254
astern	-5255
▁profit	-5256
▁swim	-5257
▁Knights	-5258
olves	-5259
▁tools	-5260
▁grat	-5261
▁blades	-5262
ses	-5263
▁Pet	-5264
▁rush	-5265
olution	-5266
iden	-5267
▁tend	-5268
▁prove	-5269
Ugh	-5270
atically	-5271
▁ridiculous	-5272
▁receive	-5273
▁function	-5274
▁Sur	-5275
enses	-5276
que	-5277
azed	-5278
▁978	-5279
ability	-5280
▁stare	-5281
▁epub	-5282
▁retain	-5283
ria	-5284
▁orphan	-5285
▁extended	-5286
▁double	-5287
▁sensation	-5288
ouds	-5289
▁(1)	-5290
uable	-5291
▁widened	-5292
▁dorm	-5293
▁clenched	-5294
▁purcha	-5295
▁reck	-5296
ication	-5297
▁struct	-5298
▁Sum	-5299
▁determined	-5300
▁pupp	-5301
▁Spirit	-5302
pe	-5303
▁frame	-5304
▁Horikita	-5305
▁turns	-5306
▁spare	-5307
ship	-5308
▁Level	-5309
▁personally	-5310
▁bottle	-5311
▁materials	-5312
See	-5313
▁expensive	-5314
▁influence	-5315
▁market	-5316
▁rom	-5317
▁letters	-5318
▁scan	-5319
ifically	-5320
▁Itsuki	-5321
▁Sister	-5322
▁service	-5323
▁swing	-5324
iated	-5325
▁net	-5326
noon	-5327
▁Arm	-5328
ember	-5329
▁remar	-5330
▁smir	-5331
▁belonged	-5332
▁Inaba	-5333
▁exasper	-5334
▁Hunter	-5335
▁pleasant	-5336
▁fulf	-5337
▁classes	-5338
Be	-5339
▁innocent	-5340
ula	-5341
▁17	-5342
cean	-5343
orthern	-5344
oop	-5345
letter	-5346
▁dragons	-5347
▁brand	-5348
▁Yang	-5349
isten	-5350
ids	-5351
▁Yam	-5352
Look	-5353
OU	-5354
▁cave	-5355
▁shining	-5356
▁announced	-5357
case	-5358
ett	-5359
▁Mor	-5360
ustered	-5361
▁Such	-5362
▁park	-5363
Master	-5364
ays	-5365
▁expecting	-5366
▁basic	-5367
▁bless	-5368
olding	-5369
▁defend	-5370
▁Kon	-5371
board	-5372
▁tempor	-5373
urry	-5374
▁courage	-5375
▁labyrinth	-5376
ocr	-5377
usa	-5378
▁stead	-5379
hew	-5380
ugs	-5381
▁unl	-5382
▁grave	-5383
ounding	-5384
▁Land	-5385
omes	-5386
▁doctor	-5387
▁exchanged	-5388
▁apartment	-5389
▁Cel	-5390
erves	-5391
▁perspective	-5392
▁quality	-5393
estern	-5394
▁unless	-5395
Me	-5396
▁Goblin	-5397
▁protecting	-5398
▁craw	-5399
▁achieve	-5400
▁crimin	-5401
▁ladies	-5402
▁transport	-5403
▁fake	-5404
uous	-5405
▁angel	-5406
▁Isn	-5407
▁praise	-5408
▁flee	-5409
▁Asagi	-5410
▁Ranta	-5411
oses	-5412
▁sisters	-5413
eds	-5414
▁sched	-5415
▁stir	-5416
▁protest	-5417
▁mirror	-5418
▁exposed	-5419
ores	-5420
▁grace	-5421
place	-5422
Very	-5423
oi	-5424
▁signs	-5425
▁visible	-5426
▁authority	-5427
ifteen	-5428
▁groaned	-5429
▁unre	-5430
▁marry	-5431
▁Tes	-5432
▁dying	-5433
▁officers	-5434
▁dad	-5435
▁closing	-5436
▁Have	-5437
rate	-5438
▁levels	-5439
hether	-5440
▁beam	-5441
abeth	-5442
▁Shen	-5443
▁Kiy	-5444
▁pursu	-5445
orses	-5446
eez	-5447
▁boun	-5448
ucked	-5449
▁afternoon	-5450
ulated	-5451
ugeo	-5452
▁Tod	-5453
▁mages	-5454
▁streets	-5455
▁according	-5456
▁admir	-5457
Er	-5458
▁Either	-5459
▁mumbled	-5460
▁prim	-5461
▁magn	-5462
ipe	-5463
▁sheer	-5464
▁Eventually	-5465
▁eh	-5466
lear	-5467
▁guests	-5468
▁promised	-5469
▁sheep	-5470
apt	-5471
▁jer	-5472
iter	-5473
▁acknow	-5474
▁advanced	-5475
uji	-5476
▁misu	-5477
aaaaaaaa	-5478
▁gasped	-5479
▁rice	-5480
▁Kaname	-5481
▁Slayer	-5482
▁fourth	-5483
▁stall	-5484
▁Mother	-5485
inal	-5486
▁ren	-5487
▁restaurant	-5488
▁spat	-5489
...?!”	-5490
iently	-5491
Because	-5492
▁Yuri	-5493
▁complicated	-5494
▁stopping	-5495
▁stub	-5496
▁creep	-5497
EN	-5498
▁Map	-5499
▁resistance	-5500
▁Grand	-5501
▁Rec	-5502
▁chill	-5503
▁Bel	-5504
▁cheap	-5505
▁corrid	-5506
inent	-5507
Lady	-5508
▁deg	-5509
▁invited	-5510
▁appropri	-5511
▁Tesfia	-5512
▁encour	-5513
▁servant	-5514
▁tension	-5515
▁famil	-5516
▁sway	-5517
▁Island	-5518
▁Ur	-5519
▁precisely	-5520
▁ride	-5521
▁academy	-5522
▁jo	-5523
▁intim	-5524
▁mas	-5525
▁shrine	-5526
ahama	-5527
▁rein	-5528
utation	-5529
▁relaxed	-5530
▁Whatever	-5531
▁dirty	-5532
,"	-5533
▁seemingly	-5534
sm	-5535
▁Eri	-5536
dding	-5537
▁sorcerer	-5538
▁cooper	-5539
▁emergency	-5540
▁connection	-5541
▁destination	-5542
▁Ber	-5543
▁stunned	-5544
▁Super	-5545
▁punch	-5546
▁robe	-5547
▁prison	-5548
imum	-5549
ekawa	-5550
▁calcul	-5551
▁mechan	-5552
▁rising	-5553
▁technology	-5554
▁learning	-5555
▁peaceful	-5556
▁preparations	-5557
lass	-5558
▁social	-5559
za	-5560
ono	-5561
▁corpse	-5562
artial	-5563
Un	-5564
▁Eugeo	-5565
▁bullet	-5566
▁upward	-5567
▁Ep	-5568
▁complex	-5569
▁challenge	-5570
▁Rok	-5571
▁uncomfort	-5572
▁ta	-5573
attle	-5574
▁picking	-5575
▁dull	-5576
▁Priestess	-5577
acles	-5578
▁crimson	-5579
TER	-5580
▁boat	-5581
▁enjoyed	-5582
igahama	-5583
▁pond	-5584
▁Dad	-5585
▁contain	-5586
▁Sign	-5587
▁murder	-5588
▁gift	-5589
▁west	-5590
pass	-5591
usei	-5592
▁Shall	-5593
▁device	-5594
▁gratitude	-5595
▁marriage	-5596
▁citizens	-5597
▁Upon	-5598
▁tick	-5599
▁comrades	-5600
▁corps	-5601
▁kiss	-5602
▁margin	-5603
▁glow	-5604
▁distract	-5605
den	-5606
▁clouds	-5607
▁blew	-5608
▁Press	-5609
▁valuable	-5610
▁Aqua	-5611
▁Genji	-5612
▁Art	-5613
▁hearts	-5614
▁conc	-5615
▁Look	-5616
▁tax	-5617
▁local	-5618
fect	-5619
▁enthus	-5620
▁pour	-5621
▁Try	-5622
▁stones	-5623
BN	-5624
▁grounds	-5625
▁fashion	-5626
▁breakfast	-5627
▁cards	-5628
asures	-5629
▁recognize	-5630
formed	-5631
▁wet	-5632
▁Kom	-5633
iques	-5634
▁Aria	-5635
▁plot	-5636
▁remark	-5637
▁sch	-5638
▁bree	-5639
▁Kaito	-5640
▁anime	-5641
▁gained	-5642
▁published	-5643
▁slid	-5644
▁operation	-5645
▁reluct	-5646
▁subordinates	-5647
bkit	-5648
webkit	-5649
udge	-5650
▁buried	-5651
▁increased	-5652
▁avail	-5653
Every	-5654
▁Hilde	-5655
▁blocked	-5656
ronic	-5657
▁groups	-5658
▁originally	-5659
▁constantly	-5660
umans	-5661
▁ends	-5662
▁windows	-5663
▁represent	-5664
▁Kag	-5665
▁Kok	-5666
▁Sal	-5667
▁Hal	-5668
▁slender	-5669
▁Devil	-5670
▁medicine	-5671
▁paying	-5672
▁manip	-5673
▁ingredients	-5674
▁raising	-5675
▁heavily	-5676
▁hunting	-5677
▁statement	-5678
▁weakness	-5679
▁popped	-5680
▁nin	-5681
uction	-5682
▁hesitated	-5683
▁goblin	-5684
▁happiness	-5685
Go	-5686
▁ought	-5687
▁Miyuki	-5688
▁Kun	-5689
▁wagon	-5690
▁reass	-5691
tr	-5692
gen	-5693
haru	-5694
fered	-5695
▁ISBN	-5696
▁embarrassing	-5697
▁arts	-5698
orcer	-5699
▁vide	-5700
▁Shusei	-5701
▁Hanekawa	-5702
▁thoroughly	-5703
▁clo	-5704
▁Fel	-5705
▁Id	-5706
▁21	-5707
▁possess	-5708
▁trained	-5709
▁horses	-5710
cuse	-5711
▁soup	-5712
che	-5713
▁Fire	-5714
there	-5715
▁families	-5716
eaking	-5717
▁offering	-5718
▁dodge	-5719
ounds	-5720
udou	-5721
▁Natsuki	-5722
▁passage	-5723
▁branch	-5724
▁regardless	-5725
uzu	-5726
▁daily	-5727
▁conduct	-5728
▁Masato	-5729
agged	-5730
enger	-5731
▁wry	-5732
▁Lieutenant	-5733
▁strangely	-5734
atory	-5735
icient	-5736
aaa	-5737
handed	-5738
▁crown	-5739
▁Shizuka	-5740
▁related	-5741
vert	-5742
▁spar	-5743
▁wrote	-5744
▁emerged	-5745
▁random	-5746
▁saving	-5747
▁closely	-5748
▁Cec	-5749
vis	-5750
▁trig	-5751
▁dare	-5752
▁dance	-5753
▁Wolf	-5754
▁Yuigahama	-5755
▁candid	-5756
▁pil	-5757
eder	-5758
▁bent	-5759
▁dirt	-5760
▁spect	-5761
▁crushed	-5762
▁faded	-5763
human	-5764
▁terribly	-5765
▁Ryuuji	-5766
▁Emperor	-5767
udging	-5768
▁fangs	-5769
▁leather	-5770
▁smoothly	-5771
▁excell	-5772
oro	-5773
▁Ger	-5774
Still	-5775
▁favorite	-5776
▁Er	-5777
▁withd	-5778
▁Really	-5779
▁attached	-5780
▁intelligence	-5781
▁lots	-5782
▁arrange	-5783
▁lip	-5784
▁produced	-5785
▁recover	-5786
▁fortress	-5787
▁Lily	-5788
▁Sch	-5789
father	-5790
▁launched	-5791
▁rise	-5792
▁eleg	-5793
gment	-5794
▁disg	-5795
aders	-5796
ases	-5797
▁veget	-5798
▁ax	-5799
▁lat	-5800
▁covering	-5801
▁allies	-5802
▁overl	-5803
▁Guard	-5804
▁transfer	-5805
▁bew	-5806
▁rubbed	-5807
aragi	-5808
Stop	-5809
▁suffering	-5810
▁destruction	-5811
▁units	-5812
▁inner	-5813
elcome	-5814
▁visited	-5815
ups	-5816
▁contents	-5817
oyuki	-5818
etic	-5819
▁increase	-5820
hime	-5821
▁pleasure	-5822
▁eaten	-5823
▁settle	-5824
▁chain	-5825
▁deliver	-5826
▁tense	-5827
▁Tam	-5828
▁loose	-5829
inity	-5830
▁Honestly	-5831
jo	-5832
▁duke	-5833
▁brill	-5834
▁pattern	-5835
▁storm	-5836
sensei	-5837
▁rescue	-5838
Like	-5839
▁obst	-5840
▁shel	-5841
▁witch	-5842
▁i	-5843
alk	-5844
▁ruins	-5845
▁discussion	-5846
▁law	-5847
▁fairy	-5848
guard	-5849
▁mal	-5850
▁Aura	-5851
▁exhaust	-5852
eding	-5853
▁flight	-5854
▁continent	-5855
Got	-5856
ello	-5857
▁lock	-5858
▁colle	-5859
▁types	-5860
▁reflex	-5861
▁comfortable	-5862
▁separate	-5863
even	-5864
▁deny	-5865
▁lizard	-5866
cast	-5867
▁climbed	-5868
▁pause	-5869
▁blond	-5870
▁eager	-5871
▁warmth	-5872
ayed	-5873
▁coffee	-5874
▁struggled	-5875
▁selling	-5876
▁fifteen	-5877
▁Sas	-5878
ops	-5879
umber	-5880
bre	-5881
fest	-5882
▁sleeve	-5883
▁painful	-5884
▁Roxy	-5885
▁compos	-5886
▁expressions	-5887
▁companions	-5888
▁riding	-5889
▁highest	-5890
▁embr	-5891
▁engine	-5892
▁border	-5893
▁bullets	-5894
▁ven	-5895
▁Haruto	-5896
▁Lor	-5897
▁ded	-5898
▁contrast	-5899
▁evidence	-5900
▁assist	-5901
pect	-5902
ournament	-5903
uli	-5904
▁Zen	-5905
▁spiritual	-5906
▁analy	-5907
▁invis	-5908
▁serving	-5909
OOOO	-5910
down	-5911
▁creating	-5912
▁district	-5913
▁ideas	-5914
▁crime	-5915
▁stars	-5916
▁guessed	-5917
▁shone	-5918
▁30	-5919
▁lonely	-5920
▁Gold	-5921
▁smiles	-5922
▁version	-5923
▁bandits	-5924
▁chaos	-5925
▁animals	-5926
▁transform	-5927
▁forb	-5928
▁confl	-5929
▁buying	-5930
▁signal	-5931
▁stubborn	-5932
omh	-5933
sect	-5934
▁torn	-5935
▁jobs	-5936
▁Ayato	-5937
▁explod	-5938
▁Ki	-5939
othered	-5940
hant	-5941
▁cart	-5942
▁phen	-5943
▁shopping	-5944
ites	-5945
▁roar	-5946
▁provide	-5947
ley	-5948
force	-5949
▁Bal	-5950
▁resist	-5951
▁rich	-5952
ads	-5953
▁blur	-5954
▁besides	-5955
aiomh	-5956
▁Kot	-5957
▁servants	-5958
▁decis	-5959
▁arrows	-5960
Would	-5961
▁Ir	-5962
▁brown	-5963
▁passion	-5964
ahl	-5965
▁sevent	-5966
▁Sven	-5967
▁Lis	-5968
quarters	-5969
▁maids	-5970
iron	-5971
hings	-5972
▁wanting	-5973
px	-5974
▁missed	-5975
▁Ly	-5976
▁Many	-5977
idding	-5978
▁skirt	-5979
▁spite	-5980
▁novels	-5981
▁issu	-5982
▁lake	-5983
▁devil	-5984
▁reputation	-5985
▁gul	-5986
▁liquid	-5987
▁suspect	-5988
elotte	-5989
belie	-5990
▁Rokuko	-5991
▁curtain	-5992
▁School	-5993
qiu	-5994
▁equal	-5995
▁Satomi	-5996
▁Lou	-5997
▁loudly	-5998
▁identity	-5999
.’”	-6000
▁loyal	-6001
▁conditions	-6002
▁Eh	-6003
▁rapidly	-6004
▁realizing	-6005
ohol	-6006
▁inherit	-6007
ogr	-6008
▁Hin	-6009
▁gear	-6010
▁sin	-6011
▁rust	-6012
LC	-6013
▁San	-6014
ranged	-6015
▁ideal	-6016
▁protected	-6017
▁Mo	-6018
▁drive	-6019
▁require	-6020
uf	-6021
arre	-6022
▁demanded	-6023
▁page	-6024
▁horri	-6025
▁directions	-6026
▁strict	-6027
▁swear	-6028
▁failure	-6029
▁produce	-6030
lies	-6031
▁flavor	-6032
▁Satsuki	-6033
▁weather	-6034
▁stance	-6035
▁everywhere	-6036
▁symb	-6037
▁flood	-6038
▁Ass	-6039
itute	-6040
▁Cent	-6041
level	-6042
eled	-6043
▁Kis	-6044
▁continuing	-6045
rong	-6046
▁Nagisa	-6047
▁profession	-6048
atural	-6049
▁Sakura	-6050
▁safely	-6051
▁theory	-6052
▁prey	-6053
ES	-6054
▁Lat	-6055
▁Rank	-6056
▁adorable	-6057
▁standard	-6058
▁freed	-6059
▁ocean	-6060
▁unconscious	-6061
▁Gen	-6062
▁timing	-6063
tle	-6064
▁gates	-6065
▁Bas	-6066
outa	-6067
rase	-6068
▁appropriate	-6069
oman	-6070
▁Surely	-6071
▁HP	-6072
▁TV	-6073
▁Kar	-6074
▁symp	-6075
▁insisted	-6076
vity	-6077
▁shirt	-6078
▁Mari	-6079
▁reserved	-6080
▁remains	-6081
▁Claiomh	-6082
▁hy	-6083
▁Feder	-6084
▁scale	-6085
▁contained	-6086
▁await	-6087
orage	-6088
▁Life	-6089
▁labor	-6090
▁literally	-6091
who	-6092
▁Nor	-6093
▁corridor	-6094
▁entertain	-6095
▁guarantee	-6096
▁ain	-6097
▁driver	-6098
▁LLC	-6099
usk	-6100
▁provided	-6101
▁pierced	-6102
▁Set	-6103
▁blanket	-6104
▁overcome	-6105
oba	-6106
▁gripped	-6107
▁bast	-6108
▁bold	-6109
▁bul	-6110
▁apologies	-6111
aah	-6112
▁Yum	-6113
▁mov	-6114
▁peered	-6115
▁reception	-6116
iba	-6117
▁obl	-6118
▁frustration	-6119
▁Fie	-6120
▁Considering	-6121
▁News	-6122
▁arrive	-6123
▁struggle	-6124
iyama	-6125
▁disappointed	-6126
▁curled	-6127
▁experiment	-6128
▁bub	-6129
16	-6130
!"	-6131
overy	-6132
▁Bear	-6133
avy	-6134
▁collar	-6135
▁abruptly	-6136
▁badly	-6137
dow	-6138
▁crush	-6139
▁trembled	-6140
inha	-6141
▁absurd	-6142
rep	-6143
▁Saint	-6144
▁bored	-6145
▁pile	-6146
IT	-6147
cr	-6148
▁stats	-6149
▁houses	-6150
▁available	-6151
▁Phil	-6152
▁adj	-6153
▁treatment	-6154
▁biggest	-6155
AP	-6156
▁flustered	-6157
▁Maple	-6158
▁curios	-6159
▁companion	-6160
▁breeze	-6161
▁packed	-6162
▁guest	-6163
▁conflict	-6164
▁beloved	-6165
▁Several	-6166
▁Kai	-6167
▁surre	-6168
▁worrying	-6169
▁Ha	-6170
hearted	-6171
▁sunlight	-6172
▁Akuto	-6173
▁lovely	-6174
ulate	-6175
▁rever	-6176
▁Yosh	-6177
▁Whether	-6178
uted	-6179
▁spine	-6180
▁measure	-6181
▁fo	-6182
▁Death	-6183
▁directed	-6184
▁encounter	-6185
▁fond	-6186
ogahara	-6187
▁aston	-6188
▁Second	-6189
▁reflected	-6190
▁Lion	-6191
▁assassin	-6192
▁intentions	-6193
ural	-6194
▁unp	-6195
▁clock	-6196
▁Rein	-6197
▁suspected	-6198
▁consideration	-6199
▁Hearing	-6200
▁tale	-6201
which	-6202
▁folded	-6203
▁granted	-6204
phone	-6205
▁dagger	-6206
▁Dam	-6207
▁improve	-6208
▁convenient	-6209
▁sofa	-6210
▁stock	-6211
bal	-6212
Does	-6213
▁figures	-6214
▁curiosity	-6215
▁alcohol	-6216
▁million	-6217
enjogahara	-6218
itual	-6219
▁virt	-6220
lord	-6221
▁Wil	-6222
▁chamber	-6223
▁pathetic	-6224
▁100	-6225
▁shouting	-6226
▁frequ	-6227
eria	-6228
▁techniques	-6229
ucing	-6230
▁stair	-6231
▁Six	-6232
▁Iris	-6233
ca	-6234
mate	-6235
▁attempted	-6236
▁naked	-6237
▁logic	-6238
amiliar	-6239
▁sex	-6240
▁Luna	-6241
▁chick	-6242
▁heck	-6243
▁invisible	-6244
olen	-6245
AM	-6246
▁shoes	-6247
▁Ra	-6248
▁lect	-6249
uku	-6250
imate	-6251
▁recomm	-6252
ork	-6253
▁options	-6254
▁Were	-6255
▁aid	-6256
▁Qingqiu	-6257
zaki	-6258
▁dram	-6259
▁anxious	-6260
stone	-6261
▁cris	-6262
▁hunt	-6263
idently	-6264
▁Cur	-6265
▁blunt	-6266
▁nobility	-6267
▁distinct	-6268
▁shooting	-6269
fried	-6270
rated	-6271
▁Hug	-6272
▁raced	-6273
ishop	-6274
▁Castle	-6275
▁Nagase	-6276
▁supply	-6277
▁corpses	-6278
▁sole	-6279
▁opponents	-6280
▁Kik	-6281
imeon	-6282
▁misunderst	-6283
▁Paul	-6284
▁political	-6285
▁Page	-6286
▁Da	-6287
coming	-6288
umn	-6289
ungeons	-6290
hal	-6291
ja	-6292
▁depend	-6293
▁Off	-6294
▁Minoru	-6295
ethe	-6296
▁changes	-6297
▁formation	-6298
▁Snow	-6299
▁Trans	-6300
▁mystery	-6301
▁Lutz	-6302
............	-6303
▁warriors	-6304
▁sealed	-6305
▁symbol	-6306
▁descended	-6307
▁transformed	-6308
▁blink	-6309
fessor	-6310
▁princ	-6311
▁worn	-6312
▁Kam	-6313
▁Um	-6314
▁vent	-6315
▁video	-6316
▁underw	-6317
Have	-6318
night	-6319
▁duties	-6320
!?	-6321
▁fields	-6322
Mr	-6323
Eh	-6324
▁Simeon	-6325
▁lap	-6326
▁proposal	-6327
▁hid	-6328
▁admitted	-6329
ormal	-6330
evit	-6331
▁woke	-6332
▁Senjogahara	-6333
▁limits	-6334
▁outs	-6335
▁gesture	-6336
▁located	-6337
▁Arcus	-6338
▁bothered	-6339
ums	-6340
ificial	-6341
▁accord	-6342
▁modern	-6343
▁Taiga	-6344
hou	-6345
▁Hay	-6346
▁Ga	-6347
iger	-6348
▁suggestion	-6349
▁Heart	-6350
▁expectations	-6351
▁Gal	-6352
▁hurriedly	-6353
▁sank	-6354
▁Thinking	-6355
shap	-6356
▁avoided	-6357
onus	-6358
▁Sacred	-6359
▁lif	-6360
▁deliber	-6361
folk	-6362
▁Ray	-6363
▁Sho	-6364
▁hunter	-6365
▁tunnel	-6366
▁Elis	-6367
▁elimin	-6368
▁Nana	-6369
black	-6370
▁Fur	-6371
▁swiftly	-6372
ashes	-6373
▁worthy	-6374
▁Alan	-6375
▁depths	-6376
▁developed	-6377
▁pointless	-6378
▁affect	-6379
▁winning	-6380
▁squeezed	-6381
▁Fore	-6382
▁Ichika	-6383
ju	-6384
▁During	-6385
▁drunk	-6386
With	-6387
▁gloom	-6388
▁suited	-6389
▁Win	-6390
▁limbs	-6391
▁butt	-6392
▁struggling	-6393
▁fleet	-6394
mind	-6395
actly	-6396
▁ruler	-6397
▁Myne	-6398
▁stag	-6399
▁relatively	-6400
▁lux	-6401
▁guide	-6402
▁hopes	-6403
▁crou	-6404
▁Cliff	-6405
bye	-6406
▁elev	-6407
▁trace	-6408
▁ma	-6409
▁veh	-6410
▁Mem	-6411
▁wrist	-6412
▁burden	-6413
▁Gabrielle	-6414
▁cursed	-6415
▁crew	-6416
▁Noble	-6417
▁hunters	-6418
▁Mai	-6419
▁wed	-6420
ym	-6421
One	-6422
▁glaring	-6423
ogether	-6424
▁Sets	-6425
▁Shiroe	-6426
comb	-6427
unted	-6428
enjirou	-6429
▁troubles	-6430
▁leaders	-6431
▁Sou	-6432
▁realm	-6433
ugging	-6434
▁24	-6435
▁Shiori	-6436
▁martial	-6437
▁suf	-6438
▁comput	-6439
▁sacrif	-6440
▁violent	-6441
▁documents	-6442
▁uncomfortable	-6443
imet	-6444
▁program	-6445
▁kil	-6446
▁sen	-6447
▁Elsa	-6448
▁pink	-6449
▁formal	-6450
etheless	-6451
▁chase	-6452
▁punishment	-6453
▁ultimately	-6454
▁assault	-6455
▁briefly	-6456
tw	-6457
▁studying	-6458
▁hatred	-6459
▁generally	-6460
▁Mary	-6461
▁resour	-6462
▁Colonel	-6463
▁appears	-6464
mitted	-6465
▁cleaning	-6466
▁Ale	-6467
▁doubted	-6468
▁dign	-6469
▁inevit	-6470
▁suffered	-6471
▁guns	-6472
izarre	-6473
▁detail	-6474
▁Commander	-6475
eyed	-6476
▁alley	-6477
▁wash	-6478
▁leaning	-6479
erving	-6480
▁stated	-6481
▁muscles	-6482
▁teaching	-6483
▁accompanied	-6484
▁pul	-6485
▁“‘	-6486
▁zero	-6487
▁importantly	-6488
▁None	-6489
▁Uh	-6490
vering	-6491
▁habit	-6492
shaped	-6493
▁embarrassment	-6494
▁Forth	-6495
▁Zenjirou	-6496
▁sche	-6497
▁alliance	-6498
▁informed	-6499
▁aimed	-6500
▁swinging	-6501
▁verge	-6502
nn	-6503
▁mix	-6504
▁trusted	-6505
▁ling	-6506
AD	-6507
berg	-6508
▁leapt	-6509
▁MP	-6510
▁Max	-6511
ternal	-6512
▁handsome	-6513
▁dishes	-6514
▁Kum	-6515
▁Using	-6516
▁Water	-6517
▁screw	-6518
ube	-6519
▁hill	-6520
▁Zel	-6521
▁model	-6522
ountered	-6523
▁Newsletter	-6524
▁Fortunately	-6525
▁distur	-6526
▁exagger	-6527
▁awake	-6528
▁disple	-6529
Miss	-6530
abbit	-6531
▁motiv	-6532
▁troubled	-6533
▁psy	-6534
▁Pur	-6535
▁performance	-6536
upt	-6537
▁shy	-6538
▁horiz	-6539
▁protection	-6540
hop	-6541
▁giba	-6542
▁faintly	-6543
▁issues	-6544
▁coincidence	-6545
▁brushed	-6546
▁hey	-6547
▁intr	-6548
▁beating	-6549
▁Last	-6550
sis	-6551
▁22	-6552
▁Ob	-6553
▁Gre	-6554
▁scow	-6555
▁foe	-6556
▁reveal	-6557
▁landing	-6558
▁Forthort	-6559
▁resting	-6560
▁describe	-6561
▁Dem	-6562
▁hamm	-6563
▁nine	-6564
▁shit	-6565
▁gives	-6566
▁Lil	-6567
▁cheerful	-6568
▁Miharu	-6569
jin	-6570
▁Legion	-6571
▁nodding	-6572
Could	-6573
▁Book	-6574
▁fortune	-6575
▁instructions	-6576
▁touching	-6577
▁specifically	-6578
essel	-6579
▁moves	-6580
▁Ap	-6581
▁objective	-6582
incarn	-6583
▁seats	-6584
▁purple	-6585
believ	-6586
ecess	-6587
▁encountered	-6588
▁gir	-6589
▁strateg	-6590
▁unple	-6591
▁predic	-6592
Yep	-6593
atsu	-6594
▁colors	-6595
▁Adventurers	-6596
▁flut	-6597
▁designed	-6598
ED	-6599
▁entering	-6600
▁Indeed	-6601
▁lands	-6602
▁remarked	-6603
▁shattered	-6604
▁blown	-6605
▁captured	-6606
▁bone	-6607
▁spreading	-6608
▁observed	-6609
aneously	-6610
▁Seven	-6611
▁arranged	-6612
▁translation	-6613
▁traveled	-6614
▁excellent	-6615
▁receiving	-6616
quet	-6617
▁spending	-6618
▁unfamiliar	-6619
▁snake	-6620
▁max	-6621
▁parties	-6622
▁variety	-6623
▁convince	-6624
rous	-6625
▁Color	-6626
▁delivered	-6627
dy	-6628
▁Erika	-6629
Sir	-6630
acking	-6631
Excuse	-6632
▁tracks	-6633
▁dawn	-6634
▁ruin	-6635
ardless	-6636
itching	-6637
▁planet	-6638
▁flag	-6639
▁recovered	-6640
▁classmates	-6641
▁Mim	-6642
ardon	-6643
▁Inv	-6644
asty	-6645
▁Akatsuki	-6646
omeday	-6647
theless	-6648
▁compar	-6649
▁Elisabeth	-6650
erous	-6651
▁bond	-6652
▁roared	-6653
wait	-6654
▁latest	-6655
acket	-6656
▁dining	-6657
iiii	-6658
▁tra	-6659
▁slept	-6660
▁dungeons	-6661
ppy	-6662
▁bill	-6663
raine	-6664
orge	-6665
neath	-6666
▁Sim	-6667
▁breathe	-6668
▁structure	-6669
▁Welf	-6670
▁described	-6671
▁Five	-6672
▁Pi	-6673
▁Att	-6674
▁sounding	-6675
▁Ever	-6676
▁bowl	-6677
▁bizarre	-6678
▁avat	-6679
▁joking	-6680
▁flowing	-6681
▁minds	-6682
▁Lin	-6683
▁oil	-6684
▁Kuz	-6685
▁Rain	-6686
▁minister	-6687
uding	-6688
▁hyp	-6689
▁lacked	-6690
▁concept	-6691
▁unw	-6692
▁Day	-6693
▁promptly	-6694
ifting	-6695
▁ranks	-6696
▁web	-6697
▁scratched	-6698
▁annoyed	-6699
aved	-6700
onsense	-6701
▁Magical	-6702
▁Mad	-6703
▁Mir	-6704
▁seal	-6705
efense	-6706
▁chances	-6707
▁slumped	-6708
▁towns	-6709
▁23	-6710
inks	-6711
▁Vass	-6712
▁ultimate	-6713
▁dried	-6714
▁stolen	-6715
▁helmet	-6716
lfriend	-6717
▁revenge	-6718
▁”	-6719
▁Mikoto	-6720
obby	-6721
▁yellow	-6722
▁wounded	-6723
▁horn	-6724
▁Mits	-6725
erted	-6726
▁delicate	-6727
▁likes	-6728
▁glowing	-6729
umble	-6730
▁Behind	-6731
Per	-6732
▁Coun	-6733
obu	-6734
▁exit	-6735
▁Mei	-6736
▁Yo	-6737
▁forcing	-6738
However	-6739
▁northern	-6740
arer	-6741
▁environ	-6742
▁eyebrows	-6743
▁tank	-6744
▁1:	-6745
▁announce	-6746
▁steal	-6747
▁patted	-6748
▁aback	-6749
▁uns	-6750
▁annoying	-6751
▁intimid	-6752
ares	-6753
▁gam	-6754
▁tradition	-6755
arse	-6756
isk	-6757
▁fled	-6758
▁user	-6759
▁Fuj	-6760
▁cab	-6761
inting	-6762
▁orcs	-6763
▁beings	-6764
▁decent	-6765
▁Med	-6766
▁essentially	-6767
▁Rather	-6768
▁kindness	-6769
pet	-6770
▁25	-6771
▁Wind	-6772
▁Until	-6773
▁dwarf	-6774
▁span	-6775
unged	-6776
▁ju	-6777
▁plant	-6778
wed	-6779
▁earned	-6780
usel	-6781
oyukihime	-6782
▁rolling	-6783
▁educ	-6784
▁roughly	-6785
▁dodged	-6786
▁Shan	-6787
▁Title	-6788
▁Araragi	-6789
▁afterward	-6790
rehen	-6791
Nothing	-6792
▁Crimson	-6793
▁sincere	-6794
▁Today	-6795
▁composed	-6796
ooo	-6797
with	-6798
▁situ	-6799
gered	-6800
▁Pres	-6801
▁outcome	-6802
▁sneak	-6803
▁Lorraine	-6804
iser	-6805
▁bewild	-6806
▁assoc	-6807
▁feared	-6808
▁Celia	-6809
▁furrowed	-6810
▁development	-6811
▁casting	-6812
▁claimed	-6813
▁completed	-6814
▁rib	-6815
ushroom	-6816
▁Republic	-6817
▁mistaken	-6818
ING	-6819
ciously	-6820
▁Ron	-6821
▁anxiety	-6822
semb	-6823
▁jew	-6824
▁term	-6825
▁proceed	-6826
▁dismiss	-6827
eric	-6828
▁bask	-6829
▁Mark	-6830
▁hungry	-6831
ties	-6832
▁swept	-6833
itz	-6834
▁pir	-6835
friend	-6836
▁corners	-6837
▁urge	-6838
▁Lev	-6839
outhern	-6840
▁wishes	-6841
▁skelet	-6842
▁selfish	-6843
▁cake	-6844
▁apology	-6845
▁Ign	-6846
▁Claud	-6847
▁Kuroyukihime	-6848
▁sniff	-6849
▁Vill	-6850
elling	-6851
▁latter	-6852
specially	-6853
▁sentence	-6854
ni	-6855
▁Far	-6856
▁freely	-6857
▁202	-6858
▁ritual	-6859
▁Roku	-6860
▁Things	-6861
▁Neither	-6862
▁majority	-6863
his	-6864
▁introduce	-6865
anc	-6866
veled	-6867
▁argument	-6868
▁checking	-6869
▁extent	-6870
▁concluded	-6871
▁inqu	-6872
lim	-6873
▁Dep	-6874
▁cloak	-6875
▁tur	-6876
▁twelve	-6877
▁introduced	-6878
▁vig	-6879
▁wheat	-6880
53	-6881
va	-6882
▁Ku	-6883
▁borrow	-6884
▁vessel	-6885
hips	-6886
ittee	-6887
▁Sop	-6888
acity	-6889
colored	-6890
renfest	-6891
▁counting	-6892
▁cracked	-6893
▁assigned	-6894
amb	-6895
▁sib	-6896
▁neat	-6897
utting	-6898
enery	-6899
▁potion	-6900
ishi	-6901
▁birds	-6902
▁dealt	-6903
outs	-6904
▁fab	-6905
mo	-6906
▁archd	-6907
▁puzzled	-6908
▁rif	-6909
▁debt	-6910
▁manager	-6911
Our	-6912
terest	-6913
▁2:	-6914
ounted	-6915
▁Eight	-6916
headed	-6917
▁grumbled	-6918
ences	-6919
▁surpass	-6920
▁Dis	-6921
shot	-6922
▁Mag	-6923
▁pig	-6924
athed	-6925
▁equally	-6926
▁hesitate	-6927
▁revealing	-6928
ixt	-6929
keeper	-6930
▁Anyone	-6931
▁culture	-6932
lance	-6933
▁Tion	-6934
▁crap	-6935
Or	-6936
▁startled	-6937
inding	-6938
urning	-6939
▁hal	-6940
▁breathed	-6941
▁unpleasant	-6942
sec	-6943
ooked	-6944
▁painting	-6945
athy	-6946
ipl	-6947
▁golem	-6948
▁Index	-6949
▁Liselotte	-6950
ti	-6951
Fine	-6952
▁pretend	-6953
▁proceeded	-6954
▁Majic	-6955
▁negoti	-6956
▁Rafinha	-6957
▁Yae	-6958
▁genius	-6959
▁construct	-6960
▁salt	-6961
▁tore	-6962
▁fiction	-6963
aches	-6964
▁chim	-6965
▁equipped	-6966
▁genuinely	-6967
ogen	-6968
izard	-6969
▁Tower	-6970
▁switch	-6971
ilty	-6972
▁washed	-6973
▁Mic	-6974
▁rushing	-6975
▁Shido	-6976
▁Inside	-6977
lems	-6978
▁cocked	-6979
▁Anne	-6980
▁Taking	-6981
▁separated	-6982
▁claws	-6983
▁CH	-6984
▁awfully	-6985
▁forty	-6986
ervation	-6987
▁trigger	-6988
▁Sayaka	-6989
▁reports	-6990
rib	-6991
▁disaster	-6992
ulty	-6993
▁subst	-6994
▁Acceler	-6995
▁suspicion	-6996
▁uncertain	-6997
bted	-6998
hie	-6999
▁horrible	-7000
▁slave	-7001
▁Merry	-7002
▁Ehrenfest	-7003
lying	-7004
▁Order	-7005
▁commotion	-7006
▁Ot	-7007
▁via	-7008
▁contest	-7009
Get	-7010
view	-7011
▁hitting	-7012
▁estate	-7013
▁edition	-7014
inged	-7015
▁central	-7016
mered	-7017
▁Sudou	-7018
▁fog	-7019
▁warned	-7020
olate	-7021
▁acceler	-7022
▁circles	-7023
▁bust	-7024
▁Keep	-7025
▁Ran	-7026
don	-7027
▁Sag	-7028
▁Seriously	-7029
▁Rin	-7030
▁sticking	-7031
▁displayed	-7032
▁Rod	-7033
▁Night	-7034
▁artificial	-7035
▁Shih	-7036
ooped	-7037
▁shudd	-7038
founded	-7039
▁enchan	-7040
de	-7041
AS	-7042
ede	-7043
▁Illustr	-7044
▁underneath	-7045
▁resembled	-7046
Looks	-7047
▁3:	-7048
▁gazing	-7049
Damn	-7050
▁deploy	-7051
▁ensure	-7052
▁exploded	-7053
▁regarding	-7054
Hold	-7055
▁pant	-7056
▁minor	-7057
▁dashed	-7058
▁thinks	-7059
see	-7060
▁collapse	-7061
hiko	-7062
▁section	-7063
▁Dist	-7064
Some	-7065
▁screaming	-7066
▁thumb	-7067
▁Inter	-7068
▁cared	-7069
▁scenario	-7070
▁Soon	-7071
▁Kyousuke	-7072
Umm	-7073
▁jun	-7074
▁tournament	-7075
▁wipe	-7076
▁allowing	-7077
aaah	-7078
▁recent	-7079
▁yen	-7080
First	-7081
▁wealth	-7082
▁Hm	-7083
▁pitch	-7084
▁environment	-7085
sted	-7086
▁heh	-7087
▁mercenaries	-7088
▁greeting	-7089
▁Professor	-7090
▁slime	-7091
▁Staff	-7092
▁fol	-7093
▁neighb	-7094
▁collected	-7095
made	-7096
▁determination	-7097
sized	-7098
▁Stop	-7099
▁brilliant	-7100
anda	-7101
sequ	-7102
bar	-7103
asky	-7104
▁pool	-7105
▁Benno	-7106
▁heavens	-7107
rage	-7108
▁potions	-7109
▁interp	-7110
▁sav	-7111
▁ignoring	-7112
▁pressing	-7113
azz	-7114
▁Heaven	-7115
▁aiming	-7116
urst	-7117
▁anti	-7118
▁disgust	-7119
▁striking	-7120
inshi	-7121
▁seated	-7122
▁survived	-7123
▁unleashed	-7124
▁Osh	-7125
asted	-7126
▁areas	-7127
▁prime	-7128
▁competition	-7129
▁Tama	-7130
▁dang	-7131
▁answers	-7132
▁property	-7133
▁Nobody	-7134
ouki	-7135
▁Hell	-7136
▁lies	-7137
▁unst	-7138
▁Got	-7139
▁awkwardly	-7140
Tr	-7141
▁nur	-7142
oms	-7143
umo	-7144
▁farm	-7145
senpai	-7146
▁meals	-7147
▁sliced	-7148
center	-7149
▁Nar	-7150
▁Blade	-7151
▁heroes	-7152
▁fifth	-7153
▁guilty	-7154
oration	-7155
▁severe	-7156
▁solution	-7157
▁nations	-7158
▁Rui	-7159
▁Fort	-7160
▁accurate	-7161
▁trait	-7162
▁degree	-7163
obo	-7164
▁victim	-7165
▁reckless	-7166
▁stuffed	-7167
▁drained	-7168
▁kidding	-7169
▁flin	-7170
leg	-7171
▁clung	-7172
▁Piasky	-7173
▁species	-7174
omenon	-7175
ibilities	-7176
▁affection	-7177
▁orphanage	-7178
▁Sel	-7179
▁matches	-7180
identally	-7181
▁row	-7182
apers	-7183
▁exerc	-7184
▁Toriko	-7185
▁backed	-7186
▁Flum	-7187
▁fears	-7188
▁Karen	-7189
▁apologized	-7190
▁forbidden	-7191
▁ramp	-7192
▁stern	-7193
▁injuries	-7194
▁Jo	-7195
▁rival	-7196
▁shift	-7197
▁flipped	-7198
lain	-7199
▁Toh	-7200
soever	-7201
▁Tina	-7202
eness	-7203
▁sheet	-7204
▁Suzuno	-7205
eered	-7206
▁clue	-7207
▁baron	-7208
▁suffer	-7209
▁pout	-7210
▁drove	-7211
LL	-7212
▁cock	-7213
eeling	-7214
▁erupt	-7215
▁release	-7216
▁plat	-7217
▁Sakuta	-7218
▁Fourth	-7219
▁insan	-7220
▁firing	-7221
▁Spec	-7222
▁Ik	-7223
▁Especially	-7224
▁scrap	-7225
ointment	-7226
▁bore	-7227
▁hotel	-7228
▁twitched	-7229
▁Alicia	-7230
▁Sei	-7231
▁schol	-7232
▁sorcer	-7233
▁whatsoever	-7234
▁giggled	-7235
sch	-7236
cel	-7237
iam	-7238
ram	-7239
ront	-7240
▁unlikely	-7241
▁Lef	-7242
▁steadily	-7243
▁false	-7244
▁greatly	-7245
▁switched	-7246
▁sacred	-7247
▁successfully	-7248
▁cul	-7249
▁tens	-7250
▁Hig	-7251
▁incomp	-7252
▁Star	-7253
▁solve	-7254
baru	-7255
uish	-7256
▁expand	-7257
▁pity	-7258
▁chased	-7259
▁occasionally	-7260
▁reject	-7261
yy	-7262
amped	-7263
▁dece	-7264
▁Bing	-7265
▁Damn	-7266
▁duch	-7267
Listen	-7268
▁joining	-7269
▁accomplish	-7270
▁Mid	-7271
▁River	-7272
▁dun	-7273
▁gem	-7274
▁grandfather	-7275
rena	-7276
▁Wilfried	-7277
▁electric	-7278
▁dancing	-7279
hiro	-7280
▁weeks	-7281
▁Suun	-7282
▁eastern	-7283
▁girlfriend	-7284
▁Setsura	-7285
▁Maiden	-7286
▁buck	-7287
▁Freya	-7288
▁arc	-7289
▁pillar	-7290
▁composure	-7291
▁Co	-7292
▁background	-7293
▁explaining	-7294
▁Ax	-7295
▁et	-7296
▁mercenary	-7297
▁phot	-7298
▁secure	-7299
▁Sometimes	-7300
▁statue	-7301
umps	-7302
adeko	-7303
▁dub	-7304
▁bomb	-7305
▁relig	-7306
▁trapped	-7307
▁Regardless	-7308
▁Ya	-7309
▁furn	-7310
▁adjust	-7311
▁Keima	-7312
▁grant	-7313
▁judgment	-7314
▁strained	-7315
▁spo	-7316
▁toy	-7317
▁dumbfounded	-7318
▁Mel	-7319
▁blessing	-7320
▁clever	-7321
▁mercy	-7322
▁facility	-7323
rave	-7324
itter	-7325
thur	-7326
▁fabric	-7327
▁investigation	-7328
▁editor	-7329
acob	-7330
▁exasperated	-7331
umes	-7332
▁unnecess	-7333
▁Sub	-7334
▁angle	-7335
▁Shinobu	-7336
▁unbeliev	-7337
Isn	-7338
uary	-7339
▁schedule	-7340
▁demonic	-7341
▁Kiriyama	-7342
▁AI	-7343
▁Ru	-7344
▁temperature	-7345
worm	-7346
▁hastily	-7347
white	-7348
▁charm	-7349
▁Mister	-7350
▁compliment	-7351
akura	-7352
Ahh	-7353
▁Foll	-7354
▁sharing	-7355
pro	-7356
▁cream	-7357
▁invent	-7358
▁arrival	-7359
▁reli	-7360
rences	-7361
▁4:	-7362
▁Lv	-7363
▁Lyu	-7364
▁restr	-7365
▁driven	-7366
▁illumin	-7367
▁nick	-7368
▁feed	-7369
▁chef	-7370
▁Aisha	-7371
arc	-7372
▁Little	-7373
▁floated	-7374
▁dug	-7375
▁breasts	-7376
▁Slow	-7377
▁Myusel	-7378
▁wolves	-7379
▁Alliance	-7380
▁milk	-7381
▁avatar	-7382
▁interior	-7383
▁significant	-7384
▁expert	-7385
▁gravity	-7386
IS	-7387
Was	-7388
▁gas	-7389
efully	-7390
▁chasing	-7391
▁Sw	-7392
▁herbs	-7393
▁priests	-7394
lla	-7395
▁flowed	-7396
▁barrel	-7397
izz	-7398
▁Maya	-7399
▁holes	-7400
▁miracle	-7401
▁offensive	-7402
▁western	-7403
istr	-7404
Those	-7405
▁fundament	-7406
asc	-7407
After	-7408
▁muscle	-7409
▁starts	-7410
▁admin	-7411
▁intellect	-7412
▁Eric	-7413
enth	-7414
▁sucked	-7415
▁pose	-7416
▁filling	-7417
▁internal	-7418
▁panicked	-7419
may	-7420
▁Him	-7421
▁finishing	-7422
▁Federation	-7423
▁hoarse	-7424
▁branches	-7425
▁capture	-7426
▁jaw	-7427
▁Further	-7428
▁engaged	-7429
▁visiting	-7430
dr	-7431
Act	-7432
▁Saya	-7433
▁proved	-7434
▁somebody	-7435
................	-7436
▁someday	-7437
▁Skill	-7438
▁grinning	-7439
cend	-7440
▁Arato	-7441
▁phenomenon	-7442
Span	-7443
▁Kaoru	-7444
▁woods	-7445
gent	-7446
faced	-7447
▁nervously	-7448
kobo	-7449
acious	-7450
combine	-7451
▁lesson	-7452
koboSpan	-7453
aza	-7454
▁fortun	-7455
▁armored	-7456
▁closest	-7457
▁witnessed	-7458
▁construction	-7459
▁oh	-7460
oned	-7461
▁rested	-7462
▁criminal	-7463
▁referring	-7464
▁rope	-7465
iments	-7466
▁elementary	-7467
▁button	-7468
ION	-7469
▁grade	-7470
gers	-7471
▁Hermes	-7472
Shut	-7473
align	-7474
ache	-7475
▁armed	-7476
▁acquaint	-7477
▁clinging	-7478
eu	-7479
ded	-7480
▁lacking	-7481
▁methods	-7482
▁priority	-7483
▁critic	-7484
▁Ny	-7485
▁silly	-7486
▁Op	-7487
▁Sy	-7488
▁insect	-7489
03	-7490
▁honey	-7491
▁bathroom	-7492
▁hopeless	-7493
-1	-7494
▁cy	-7495
En	-7496
▁Ric	-7497
orter	-7498
▁Yui	-7499
▁noticing	-7500
nes	-7501
▁tas	-7502
utral	-7503
spect	-7504
▁Core	-7505
▁Guess	-7506
▁cases	-7507
▁reduced	-7508
irled	-7509
▁Nanami	-7510
▁pained	-7511
▁tremend	-7512
▁Sis	-7513
point	-7514
▁Shu	-7515
▁positions	-7516
atives	-7517
ieli	-7518
▁Bre	-7519
▁murd	-7520
▁scre	-7521
▁Gran	-7522
▁glimpse	-7523
▁stands	-7524
▁Riku	-7525
▁charging	-7526
▁steam	-7527
▁insist	-7528
▁pouring	-7529
▁caf	-7530
▁Lan	-7531
▁Van	-7532
ranking	-7533
▁resources	-7534
▁wandering	-7535
ouji	-7536
▁Kanbaru	-7537
▁Prim	-7538
▁wise	-7539
▁boring	-7540
▁Megumin	-7541
▁Che	-7542
▁detect	-7543
▁arrog	-7544
▁Reinhard	-7545
▁adop	-7546
▁worries	-7547
ping	-7548
ulations	-7549
▁bastard	-7550
▁reported	-7551
▁acknowled	-7552
▁terrified	-7553
▁Jacob	-7554
▁nonsense	-7555
▁lend	-7556
▁quit	-7557
▁Girls	-7558
▁courty	-7559
▁mode	-7560
▁oblig	-7561
▁reinforce	-7562
had	-7563
▁waving	-7564
▁vegetables	-7565
▁cliff	-7566
▁tended	-7567
▁attendants	-7568
▁Ret	-7569
▁disgu	-7570
▁Claudia	-7571
▁Laf	-7572
▁stroked	-7573
▁True	-7574
▁active	-7575
rete	-7576
▁bearing	-7577
erable	-7578
▁Nadeko	-7579
55	-7580
▁abn	-7581
adding	-7582
▁forming	-7583
▁national	-7584
Take	-7585
Hee	-7586
▁Arthur	-7587
▁justice	-7588
▁absorbed	-7589
▁invite	-7590
▁affairs	-7591
▁workshop	-7592
▁Looks	-7593
▁harvest	-7594
isco	-7595
▁Palace	-7596
▁lur	-7597
▁courtyard	-7598
Nah	-7599
▁infer	-7600
▁earnest	-7601
▁Jinshi	-7602
▁melted	-7603
▁messenger	-7604
▁Kieli	-7605
▁stabbed	-7606
huh	-7607
▁escort	-7608
)”	-7609
753	-7610
org	-7611
rehe	-7612
▁endless	-7613
▁recru	-7614
▁Festival	-7615
enpress	-7616
▁Ros	-7617
▁owned	-7618
▁ending	-7619
▁whoever	-7620
▁computer	-7621
ril	-7622
▁overhead	-7623
▁incidents	-7624
fas	-7625
ressing	-7626
acia	-7627
▁mud	-7628
▁Forest	-7629
▁basket	-7630
▁carved	-7631
▁Sid	-7632
▁establish	-7633
eno	-7634
▁Oshino	-7635
some	-7636
owered	-7637
atching	-7638
▁careless	-7639
▁gall	-7640
▁attendant	-7641
▁frightening	-7642
retty	-7643
▁rocks	-7644
▁Altina	-7645
▁guardian	-7646
▁yenpress	-7647
cons	-7648
▁Jean	-7649
ciless	-7650
▁reacted	-7651
▁Tem	-7652
arina	-7653
▁Ast	-7654
▁resul	-7655
why	-7656
▁headquarters	-7657
▁hol	-7658
epend	-7659
▁Moon	-7660
’?”	-7661
▁department	-7662
ulating	-7663
▁flu	-7664
uba	-7665
rehend	-7666
▁childish	-7667
▁qual	-7668
▁fantasy	-7669
▁thousands	-7670
▁og	-7671
▁fatal	-7672
▁excess	-7673
▁lung	-7674
ript	-7675
▁outst	-7676
Lord	-7677
▁secretly	-7678
▁childhood	-7679
▁ripped	-7680
▁Det	-7681
▁cred	-7682
▁resolved	-7683
can	-7684
wing	-7685
▁Shuya	-7686
▁Mam	-7687
▁Didn	-7688
▁Sera	-7689
▁Judging	-7690
▁Aman	-7691
▁uses	-7692
▁simult	-7693
▁Tu	-7694
▁cries	-7695
▁sauce	-7696
▁siblings	-7697
▁ink	-7698
▁supplies	-7699
arter	-7700
▁glancing	-7701
▁discover	-7702
▁interact	-7703
▁hurts	-7704
▁strang	-7705
▁sought	-7706
▁folks	-7707
▁mushroom	-7708
abb	-7709
▁rarely	-7710
▁Ugh	-7711
sued	-7712
otaur	-7713
▁Grim	-7714
▁drown	-7715
▁Chihiro	-7716
▁unfortunately	-7717
Pr	-7718
iana	-7719
uild	-7720
▁Luo	-7721
craft	-7722
▁elegant	-7723
▁piercing	-7724
▁transp	-7725
acter	-7726
▁Chiy	-7727
▁Therefore	-7728
▁presented	-7729
▁Yuna	-7730
▁remove	-7731
▁II	-7732
uster	-7733
▁priorit	-7734
bout	-7735
▁somet	-7736
▁sem	-7737
▁searched	-7738
▁bud	-7739
istocr	-7740
▁halfway	-7741
uis	-7742
▁Ouka	-7743
▁pages	-7744
▁shower	-7745
▁depending	-7746
▁Ge	-7747
▁Zan	-7748
▁movie	-7749
▁trading	-7750
▁Ham	-7751
aia	-7752
▁doubts	-7753
▁Golem	-7754
▁Long	-7755
hart	-7756
▁arena	-7757
▁tables	-7758
▁household	-7759
▁Shadow	-7760
▁vaguely	-7761
otic	-7762
▁Dan	-7763
▁climb	-7764
▁nerves	-7765
Welcome	-7766
▁Gilbert	-7767
▁trailed	-7768
▁fancy	-7769
antically	-7770
▁inha	-7771
gl	-7772
▁Nem	-7773
▁conqu	-7774
▁IN	-7775
▁Arch	-7776
▁physically	-7777
hin	-7778
▁combined	-7779
atisf	-7780
▁Binghe	-7781
▁scenery	-7782
▁Tell	-7783
▁Battle	-7784
▁Wow	-7785
▁Flora	-7786
▁Squ	-7787
▁readers	-7788
▁ignor	-7789
▁necessarily	-7790
▁Unable	-7791
▁sink	-7792
▁Illustrations	-7793
xed	-7794
▁Third	-7795
▁threatened	-7796
.,	-7797
▁Shohi	-7798
issa	-7799
▁dozen	-7800
▁Fiend	-7801
▁unb	-7802
▁adults	-7803
▁Viv	-7804
▁steady	-7805
▁Fol	-7806
attack	-7807
▁Aoki	-7808
▁arrest	-7809
ordinary	-7810
Will	-7811
▁psych	-7812
olds	-7813
▁Kei	-7814
wind	-7815
▁Certain	-7816
▁realization	-7817
▁practical	-7818
▁intently	-7819
▁Magicmaster	-7820
ihil	-7821
▁drank	-7822
▁Miyako	-7823
▁insane	-7824
▁Rokujou	-7825
▁Oliver	-7826
▁Ashi	-7827
▁Rook	-7828
▁indicated	-7829
▁invitation	-7830
▁brave	-7831
▁frank	-7832
▁irritated	-7833
▁assistance	-7834
▁Sun	-7835
ussed	-7836
▁occupied	-7837
▁tavern	-7838
▁immense	-7839
mother	-7840
▁betrayed	-7841
▁Drag	-7842
▁deck	-7843
▁midst	-7844
▁speechless	-7845
▁Alaia	-7846
▁gazes	-7847
iversity	-7848
▁dwarves	-7849
▁professional	-7850
alion	-7851
▁League	-7852
▁plants	-7853
▁Invaders	-7854
▁optim	-7855
▁enveloped	-7856
wood	-7857
▁Ram	-7858
▁illusion	-7859
▁Ariel	-7860
▁remote	-7861
▁initial	-7862
▁convey	-7863
▁driving	-7864
▁medical	-7865
hild	-7866
▁Hime	-7867
▁concrete	-7868
▁Us	-7869
anagi	-7870
▁wheel	-7871
▁resear	-7872
▁Met	-7873
▁investigate	-7874
▁royalty	-7875
ilton	-7876
Everyone	-7877
▁exter	-7878
▁shovel	-7879
▁Od	-7880
▁Kas	-7881
▁preferred	-7882
▁chicken	-7883
▁emotional	-7884
▁Rud	-7885
▁clapped	-7886
▁unison	-7887
name	-7888
▁controlled	-7889
▁Very	-7890
related	-7891
ortunate	-7892
▁mused	-7893
▁Aki	-7894
▁momentum	-7895
▁site	-7896
▁sacrifice	-7897
▁cig	-7898
▁ram	-7899
▁scales	-7900
▁err	-7901
▁floors	-7902
style	-7903
▁beach	-7904
▁constant	-7905
▁violently	-7906
▁Fe	-7907
beast	-7908
▁launch	-7909
eline	-7910
▁brim	-7911
▁gradu	-7912
▁stole	-7913
agawa	-7914
▁shaken	-7915
▁posture	-7916
▁zomb	-7917
▁retrie	-7918
asm	-7919
asa	-7920
▁spy	-7921
▁argue	-7922
▁resent	-7923
▁ally	-7924
▁Asuka	-7925
▁Amelia	-7926
▁Hinami	-7927
kered	-7928
▁beard	-7929
rem	-7930
bedo	-7931
iders	-7932
▁attempting	-7933
▁aristocr	-7934
zo	-7935
▁storage	-7936
▁nest	-7937
▁Again	-7938
▁brush	-7939
▁spinning	-7940
▁Ori	-7941
▁ped	-7942
KA	-7943
hib	-7944
▁maiden	-7945
▁vehicle	-7946
▁reasonable	-7947
kind	-7948
▁27	-7949
▁minimum	-7950
▁Head	-7951
▁requested	-7952
▁Fan	-7953
▁prayer	-7954
▁string	-7955
▁immediate	-7956
▁healed	-7957
▁Rokujouma	-7958
▁oddly	-7959
▁noted	-7960
▁fulfill	-7961
▁violence	-7962
rine	-7963
▁Eye	-7964
▁stress	-7965
▁replaced	-7966
▁Nay	-7967
▁sturd	-7968
▁Kuroha	-7969
▁fet	-7970
▁Hiro	-7971
▁eyel	-7972
▁commoner	-7973
▁underest	-7974
▁silhou	-7975
▁hugged	-7976
▁midair	-7977
licted	-7978
▁Kuzaku	-7979
▁clicked	-7980
▁apparent	-7981
▁merciless	-7982
▁slapped	-7983
▁Ri	-7984
Actually	-7985
▁5:	-7986
atus	-7987
▁uneasy	-7988
▁spilled	-7989
▁Real	-7990
aret	-7991
ila	-7992
▁bedroom	-7993
▁southern	-7994
▁connections	-7995
▁brings	-7996
▁technically	-7997
▁unnecessary	-7998
iki	-7999
▁freedom	-8000
▁princip	-8001
▁abbey	-8002
▁stepping	-8003
top	-8004
▁Aug	-8005
▁glances	-8006
▁maintained	-8007
atr	-8008
tear	-8009
▁amuse	-8010
▁clearing	-8011
aron	-8012
▁Akane	-8013
▁exped	-8014
▁skull	-8015
▁26	-8016
▁Rox	-8017
ological	-8018
▁neighbor	-8019
▁Game	-8020
▁Sophia	-8021
▁situations	-8022
▁remembering	-8023
▁obey	-8024
▁Ais	-8025
▁caster	-8026
▁predict	-8027
▁catching	-8028
▁tour	-8029
▁fatig	-8030
▁cannon	-8031
▁proudly	-8032
▁Call	-8033
nia	-8034
oubted	-8035
▁assemb	-8036
earing	-8037
uddy	-8038
▁trash	-8039
▁numerous	-8040
▁vice	-8041
▁lessons	-8042
chief	-8043
▁Sapp	-8044
ype	-8045
▁newly	-8046
▁seek	-8047
▁Probably	-8048
▁exhaustion	-8049
lly	-8050
▁legendary	-8051
▁san	-8052
▁rejected	-8053
rike	-8054
▁parted	-8055
▁puffed	-8056
▁downward	-8057
▁Chris	-8058
oubtedly	-8059
lle	-8060
▁Lab	-8061
▁residence	-8062
pent	-8063
▁wandered	-8064
▁automatically	-8065
▁communication	-8066
:0	-8067
iors	-8068
▁aloud	-8069
▁manor	-8070
▁screams	-8071
ona	-8072
▁Ichiro	-8073
▁talented	-8074
▁participate	-8075
▁las	-8076
▁bothering	-8077
orthy	-8078
▁orange	-8079
▁Cecilia	-8080
▁traps	-8081
▁District	-8082
▁benefit	-8083
gthen	-8084
▁bags	-8085
sl	-8086
▁beaten	-8087
▁phrase	-8088
▁frightened	-8089
▁Alf	-8090
▁calls	-8091
▁Vamp	-8092
▁established	-8093
▁kat	-8094
▁activities	-8095
lands	-8096
▁addressed	-8097
▁Int	-8098
▁Shar	-8099
▁enthusi	-8100
▁professor	-8101
—!”	-8102
▁cro	-8103
▁brows	-8104
▁Through	-8105
▁affected	-8106
▁Mana	-8107
▁	-8108
e	-8109
t	-8110
a	-8111
o	-8112
n	-8113
i	-8114
s	-8115
h	-8116
r	-8117
l	-8118
d	-8119
u	-8120
m	-8121
g	-8122
c	-8123
w	-8124
.	-8125
y	-8126
f	-8127
p	-8128
b	-8129
,	-8130
k	-8131
v	-8132
’	-8133
I	-8134
“	-8135
”	-8136
T	-8137
A	-8138
S	-8139
?	-8140
H	-8141
!	-8142
W	-8143
M	-8144
x	-8145
-	-8146
j	-8147
B	-8148
C	-8149
Y	-8150
L	-8151
z	-8152
O	-8153
R	-8154
N	-8155
E	-8156
D	-8157
K	-8158
q	-8159
F	-8160
G	-8161
—	-8162
:	-8163
P	-8164
0	-8165
J	-8166
2	-8167
U	-8168
1	-8169
V	-8170
)	-8171
(	-8172
;	-8173
"	-8174
3	-8175
'	-8176
5	-8177
4	-8178
Z	-8179
‘	-8180
6	-8181
9	-8182
7	-8183
8	-8184
Q	-8185
*	-8186
─	-8187
